[PAD]
[UNK]
[MASK]
[CLS]
[SEP]
er
##u
ser
##user
##e
##d
##p
##l
ue
##a
##c
os
en
##de
##s
##m
ar
##q
as
##t
an
on
or
rl
##url
es
##que
##es
##n
do
##y
ta
##h
ci
##v
##la
al
re
in
##en
te
##el
##no
ja
da
to
##un
ra
is
##E
om
##se
##f
##con
##me
ien
ic
##b
##P
##A
am
##S
##ha
ol
##M
##g
##C
ro
##por
##lo
ero
##par
le
ti
##L
de
..
ch
un
##N
##si
##o
ui
##los
ón
##al
go
ri
##com
##T
ía
##te
di
la
##Y
##mi
us
##re
##D
ab
ando
lo
jaja
mp
##para
##i
##est
##Es
##una
##to
ás
##in
res
ente
###
...
##su
JA
##mu
uen
##di
##del
##cu
ec
##las
mo
##le
ma
bi
mos
##Q
que
el
era
##No
##H
##B
oy
ga
dad
gu
ción
vi
dos
##pero
##j
##J
tr
ca
##ten
tar
##V
##qu
ues
cu
##ver
##des
ba
ada
##como
!!
tos
mi
##más
##vi
##ser
##hac
##per
ia
##¿
pa
co
tu
##pa
##esta
tra
ica
tas
##G
##R
##tu
ora
##yo
##po
io
ez
ter
##ya
##ma
cion
me
##qui
cia
##F
##1
tes
##as
##U
##O
##Si
##El
##ex
##pas
##an
##ac
##tien
il
##pro
ran
ten
jo
ico
ara
án
##"
##La
##pue
##I
##ch
cho
##hab
##ti
qui
##Que
##2
##ni
##ca
##Me
##pe
én
amos
vo
se
ado
emp
##r
das
li
bre
##eso
tro
po
JAJA
##son
ana
##todo
##En
##sal
si
##he
lar
##Yo
der
##hay
??
##Ja
##ah
##va
gun
##esto
##mis
iendo
tan
##sol
##pre
##tra
##jaja
##ap
ir
##cre
ambi
##(
##porque
##sab
pe
##buen
gar
iz
per
##so
##tan
ac
##res
##lle
ué
##está
dor
##bien
##man
je
cias
jor
ble
##sin
des
tor
##cuando
##nos
mente
ul
va
ño
##men
##Se
##qué
##cas
##ent
ños
ún
den
##mal
ina
##dic
##muy
ve
##este
##co
##mejor
##Por
##tiene
pi
za
uer
##Jajaja
##De
los
ru
men
ici
ver
ER
##ve
##😂
##ll
##ar
##pen
##gus
ay
##Pero
##hacer
no
ere
ur
##cos
##comp
##Lo
eces
ías
##nada
ce
son
na
tal
cha
##todos
ber
eres
##hace
##li
##pr
##sus
ras
idad
OS
##pu
##ami
racias
ista
##deci
EN
##Te
##así
##-
oo
ciones
!!!
##pi
rim
##ab
las
##am
ola
empre
##Ya
ambién
##día
##w
##solo
##us
qu
##ju
ones
##has
##can
iste
##na
##person
##imp
##fa
##ven
lan
##tengo
##les
dar
##Al
ña
##ra
ales
ita
##da
##3
gan
##:
sa
##dis
##fue
##pon
##x
du
##Con
##car
emos
AN
ha
##Buen
UE
##gente
ito
##enc
AR
##estoy
ces
##mucho
ing
##¡
les
##algo
mas
dio
dr
##años
##mas
it
##fin
##también
OR
ven
##cor
##ese
ios
gui
##pres
AS
##,
et
man
aa
##voy
iento
ís
##fal
gra
##“
##vez
##hi
00
be
ren
##era
##gan
....
##ci
ece
ES
##vo
##siempre
##ir
ión
gual
##emp
gen
##ahora
##Cu
##puede
uel
##verdad
tros
ino
omo
##quiero
##esa
##Mi
##ba
##Ma
##é
so
tado
onde
eron
aba
##soy
jar
##cuen
##esc
zo
amente
##DE
##cam
rar
gas
##prim
##cal
ON
unca
##op
##Los
tras
##Un
##sen
##vida
fer
guien
##dos
##Ah
che
##mo
##fo
he
min
##ter
##hoy
##ES
##k
##mismo
##estar
pon
cio
endo
##or
##hasta
tic
ho
##sea
##4
fi
##traba
##vos
##JAJA
##creo
mb
##ne
##pol
##fav
##W
##decir
##her
##jajajaja
ido
ómo
##menos
##fu
##mí
ale
##quien
car
cuer
##hu
omen
##much
##ay
és
##To
tir
##K
##lu
##du
par
TA
quí
##sobre
##col
gue
tido
dre
##gran
😂😂
##igual
##cosas
id
##5
##mar
##ro
for
##😂😂
##días
##pens
##20
con
##Pues
##nue
##uno
##sé
jos
##sí
##entre
cer
##desde
##NO
##dar
ona
##llam
##bueno
##esp
##for
##tener
##quer
tó
##ob
##favor
##estu
die
##amo
gos
ano
uego
##inter
ante
##In
##exp
##Re
##han
##nues
##donde
##dice
##jajaja
##Le
##mun
##tiemp
bier
##gusta
##go
##QUE
##eres
##Mu
##cono
erda
##desp
##neces
##toda
🤣🤣
DO
##nunca
bo
##cuenta
##pues
##poco
ían
##—
ig
por
ismo
osi
##An
encia
##.
##Gracias
##están
AL
##real
aron
ya
##cab
##tú
???
##uste
oso
##vis
ee
##pregun
##pasa
##Mar
##?
##Ch
##gracias
##parece
##segui
##au
laro
##otro
##Esto
TE
ués
##tom
##contra
IN
ll
lla
bl
##tiempo
##otra
##fe
dores
##Para
##persona
más
##Esta
olo
##algun
##puedo
##ins
istas
##alguien
ie
##Qué
ario
##Como
##of
##tienen
##casa
##cual
ias
lti
##bo
##equi
ciendo
CI
##gen
ris
##cambi
tica
##hom
tin
ua
##As
ena
##jo
cuerdo
##vol
##Jajajajaja
cas
##rec
pues
##tanto
gn
##segu
ñana
erto
##tw
mana
##Ten
##muj
##pla
dri
##cons
pañ
##tar
ame
if
cial
rec
dia
##gra
##van
tante
ores
##esper
##Eso
##reg
##momen
##mes
##os
##impor
##nadie
##final
##cada
##JAJAJAJA
##señ
ern
##def
tre
tando
TO
##bas
##lin
osa
eza
##do
##tam
iene
##hecho
##fuer
##vas
##sa
##escu
##cara
pen
##estaba
##mundo
##be
##aquí
##LA
eliz
##pal
vis
onces
var
##min
##antes
ida
##bus
##pel
AA
##hor
##mam
AM
##ja
##inc
##comen
##tr
##país
gún
zón
##ella
dan
IS
##Cuando
van
##año
##his
ala
mar
pu
##veces
ion
##ahí
##ún
tura
!!!!
##tienes
##Una
##Po
cil
##Jajajaja
##Des
idente
##jun
##...
##proble
OO
dido
##Pa
unque
##Hola
##digo
icos
##después
##foto
DA
toria
##veo
ín
##cómo
##may
##amor
ke
iente
ólo
##Ar
##cer
can
##Hay
##Hoy
deo
ves
tico
##parte
tivo
##Na
##tran
##mor
ts
fec
##dej
im
##tal
##6
##♀
##vamos
##todas
oles
##mierda
##vuel
eras
##Qui
ros
##ol
anta
##fi
##falta
##Las
able
lu
##personas
cional
ío
##sos
##quiere
nos
##momento
##10
##unos
##estas
##:(
##den
##ME
##mañana
##dec
##tus
cel
##ide
##cul
tiv
##ta
##ú
ck
##escri
##acab
##amigo
erte
##Ay
##EN
##Su
anos
##dijo
reo
ea
LA
##buena
##😍
##él
##Per
ice
RA
cal
##plan
RE
##había
##polí
bierno
##Bueno
##queda
##ima
imo
##ri
ge
##cosa
19
paña
##inten
icar
##fr
##sac
##dere
tina
zar
##7
js
##mon
trar
mple
##Así
##❤
##pes
uela
##llor
##Car
##mer
ér
##acuerdo
##poder
bas
ícu
tamente
char
mbre
##X
##ayu
##EL
##sabe
##enten
izo
No
##últi
##ban
tri
##dejar
gua
##visto
Es
##deja
um
##Ahora
ban
##extra
##hermos
eros
olu
##San
##amiga
omos
##pun
##estos
LO
##nuevo
eo
##jus
##semana
xico
gado
##val
##sido
##hablar
##8
eta
##ganas
gi
fa
20
##sabes
udad
##ellos
##esos
De
amil
chas
##trabajo
##Ni
gres
##jue
ísi
MO
##temp
ich
miento
éis
##bon
##er
##deber
##ad
##pri
##poner
##caso
cur
ey
##claro
##estás
##dor
rá
##the
##Estoy
##Di
vio
##♂
bra
IC
##Porque
##Ven
##|
##peor
##saber
##bar
demos
jajajaja
##apoy
enta
##Ex
poco
##🤔
##reci
bar
lus
bol
##Ca
##ej
tá
##estamos
ste
##hizo
eren
ientras
tad
##habl
bia
##fun
vel
##madre
##Sal
##partido
##tipo
##posi
##Ha
##debe
##Este
##parti
##mujer
ál
pres
##9
##haber
##Tu
##mayor
##luego
##pasar
yo
##opin
##conf
##podr
pero
anto
alo
##pien
Qué
tual
tiva
##super
##termin
icas
##Par
##problema
cen
##Dios
mir
##ade
uro
##respon
##será
????
ff
drid
jas
##historia
dió
##respe
llo
##tenemos
##juga
dida
quier
ed
titu
itter
##perd
aaa
##invi
cos
##SE
hi
##muchos
dir
##hacen
##ustedes
##UN
##sólo
##TE
La
##fuera
##on
##famil
##Creo
##siento
##har
##*
cido
ooo
ándo
##pelo
ual
jal
##primera
##segun
##casi
##aunque
##infor
bir
##dicho
##😭
eno
via
##equipo
##gu
##apar
##medio
##hora
##entonces
##Com
ine
##cha
##dicen
##asi
##seguir
##pasado
##pan
##sor
bro
##entiendo
##tenía
##inf
##tui
ace
##salu
##usted
El
##expl
##paso
##xd
mal
##aún
##gobierno
##forma
##mira
úbl
ii
jaj
##cierto
##salir
ación
##Buenos
##Ju
itos
ad
##pin
##haciendo
##bes
En
##pos
pas
##Ser
##mie
th
##puta
otros
TI
##Ro
chos
##Co
##amigos
##pare
##ale
##olvi
arios
##🤣🤣
##prof
##!
elici
##comer
##din
##imag
eet
##empez
##nor
##palab
sión
cción
##sue
Se
##noche
##esas
##viene
##quién
ima
##ce
##cr
ome
##lugar
##cen
##Son
##MI
##compar
##presidente
fici
jalá
lado
ye
##muchas
##tema
##+
##Sí
user
mm
##tor
##dan
##mill
##encon
##puedes
##comun
##lado
##mucha
##seguro
##difer
##fan
bres
ep
migo
IA
rup
eg
##Tengo
##cri
##iba
##tampoco
taría
##hombre
cis
DE
ger
esta
##Lu
vía
##único
cul
##Bar
JAJ
té
##vie
and
##ves
##Muy
##razón
ura
##somos
##otros
##😂😂😂
ut
000
##Z
##feliz
hh
##pus
##pueden
##deb
##Ac
##hici
##CON
jes
##señor
iso
##je
##idea
##z
asta
##nuestro
CH
##SI
cado
##jugar
##ton
ció
ton
##video
##nombre
##dije
##estado
##CO
##ley
##sex
##defen
##Madrid
LE
RO
##all
##Qu
##elec
##sería
##clas
tima
##comentar
tada
mor
vas
##gol
##direc
##serio
##Solo
##mil
iver
##LO
ingun
ches
##Jo
##xD
##dia
##sigue
##sec
##ví
TV
##mano
UN
JAJAJAJA
dades
vos
ial
##fotos
ior
##estudi
vir
ss
##201
ka
##interes
ticia
##HA
itas
##llegar
##cora
gó
mon
orada
##ciudad
##POR
##ga
##Todo
##mientras
##sale
##rela
ónde
##hago
##tweet
éxico
##TO
dez
ús
##is
dic
##🤣
##vale
gre
##blo
dado
iado
lam
##medi
##cabeza
gando
##encanta
##😂😂😂😂
tif
gü
blo
##abra
cios
UI
##san
cima
ron
##primer
##Pe
##España
##misma
tbol
##Tw
##espero
##pap
##tarde
isa
mano
##AM
inci
ió
##dif
##pregunta
##quieren
llos
##you
##aten
##dormir
guen
##Pre
##horas
ría
qué
##Soy
all
##cualquier
##algún
##quieres
##Siempre
##bol
##So
##🙄
##juego
##sub
##😘
fe
##ayer
##hubi
ror
##Sin
dó
puesta
##tomar
##15
RI
##rom
##miedo
##leer
##hijo
bu
tur
ár
##unas
cep
##dinero
ERO
fo
br
omin
##cap
ão
##grande
##quedar
##hue
##pena
##públ
##Claro
ini
##haya
##pasó
tados
##habla
almente
kk
##trans
pos
##consi
##meses
##ningun
##espe
".
##via
##alguna
##Vamos
##México
##llama
bado
##sino
##af
taron
##Vi
##pensar
zos
ocu
oma
aste
isi
##🤦
##Hab
##vaya
val
##Man
##tres
tun
##th
gamos
##tendr
##Ent
##Pres
lor
MTV
##nosotros
cri
##ho
diendo
Por
día
HA
##siendo
gro
##triste
##primero
bien
fru
ono
##nivel
##Cor
##0
##volver
óx
##gua
para
##19
##cumple
##familia
DI
tación
dí
##we
##demas
##recor
güen
.....
##cues
##peque
ex
gentina
LI
zas
##mujeres
##acá
##cl
##contr
##tras
##dios
duc
ile
##preocu
##Col
##nuestra
rante
##aque
##pende
##comple
icado
tigo
##lindo
##and
##realidad
ne
eran
##minu
##servi
##compañ
##bel
##ganar
##!!
ecto
mento
##Ra
##ejemp
##Go
rupo
##apren
##punto
ticos
##haces
##entr
##bor
ítu
iod
##apro
##Quiero
##resul
##iz
aro
##Ese
##mala
izar
ly
##DI
##auto
ula
gada
tera
rado
##suerte
##encima
pera
##😉
tis
tia
##ante
##bloque
##He
ísimo
ds
##Pue
##serie
EE
##pone
##Igual
jajaja
cono
##gas
##mejores
tru
quiera
ído
ezuela
##[
mer
lidad
pio
##mensa
##conmigo
GO
entes
##'
iones
##millones
##<
##RE
tero
##anda
icación
rio
til
MA
##Val
##Twitter
##agua
ientes
ernes
##Ci
##comprar
Cu
##Li
##dices
##odio
##Ba
uu
##manera
##🤷
##pueblo
##gana
dose
##Nunca
ados
##funcion
##importante
güenza
##llevar
zco
##gener
##Men
##encuen
##hablando
##conse
##Nos
aaaa
##100
##Vo
##cui
cie
##importa
##agra
##resp
AAAA
##desa
dera
##bu
##temporada
##sacar
##españ
##Aquí
hat
##entra
gía
##pelícu
##eu
##agu
pp
##profes
tion
inal
##Bo
##llorar
##capa
má
##culpa
ñas
##liber
##«
##normal
##bastante
##necesita
ÓN
##llev
MP
anza
##viendo
##cump
##eh
ento
##grupo
iden
Con
##parec
##Mira
##dij
##12
##corrup
##diciendo
##MU
ingún
ry
##respeto
##malo
tel
##pagar
one
##emo
mes
##exis
##dio
##buenos
pre
##ahre
##hermosa
##hilo
##Cómo
##cuer
##nar
ill
##AL
##beb
cin
##dol
##Esa
##Cal
##tri
ticas
##pobre
##inte
##envi
CA
cito
",
##disfru
ARA
##Sab
##Más
illa
##nueva
##ejemplo
##pl
##progra
antes
##ben
##ru
##Lle
lub
##próx
##LOS
##quería
pren
BA
usa
##moles
##acep
##corazón
##due
##😔
##VI
Que
##evi
##canción
##ign
íamos
##hijos
ciar
tamos
uestra
##😅
##algunos
##Quien
##perfec
vin
##fui
##lar
##Cas
##fá
##ref
##debería
##informa
##gusto
##saben
ientos
##pron
##Ojalá
##Pro
##cambio
##social
US
##period
##gri
##Hace
Al
##dónde
##1.
##empres
##viol
ip
##chu
##arre
##nota
##tranqui
##todavía
##MA
##😊
tón
##culo
Me
cre
ama
##duda
##Da
ñar
##jajajajaja
##ojos
ki
##ases
##sigo
##princi
##palabras
##ata
éc
dito
##creer
ens
##calle
##escuch
##contes
##puesto
lec
##entien
##bro
##rico
itar
##Eres
eee
##ningún
##total
erra
##emb
##niños
##Entonces
omingo
Te
##política
##gor
ks
##var
##dejo
##cel
aban
ese
##publ
##ren
oooo
tán
##hemos
##empi
pl
##Dis
OL
##linda
##levan
👏👏
dres
úm
uda
bles
áis
##IN
##!!!
##ense
##felici
tivos
##ofici
##Todos
##br
OOOO
##Am
##pier
##haga
##🥺
tantes
##conta
##prue
ANDO
##lleva
##podemos
##extraño
##fuerte
##padre
##(?
oc
##Desde
##Está
útbol
mina
isto
tran
##sir
##Espero
##escuchar
##otras
##respuesta
##entender
##dado
rando
##30
pital
##Jaja
puesto
##repres
rible
##abs
##vergüenza
ular
TS
gal
jja
##Hasta
duca
rió
##hice
##contigo
##deba
ollo
##mamá
inas
##cur
##También
##demasiado
uena
##ignor
##llega
pido
##además
##guar
gon
##buenas
##podría
##nego
2019
##situ
##demás
##tenga
rir
##encan
##minutos
len
##suf
##inde
aya
idos
##opinión
dora
tencia
##Pas
##fir
##fueron
cidad
##exper
##vivir
amiento
##Rec
##Venezuela
##CU
inar
quito
##Mes
##núm
##che
##conver
##lista
don
pro
##derecho
tino
iza
##tuit
##fácil
unes
##difí
##denun
quierda
##hacia
##pq
trás
##pase
##mos
##boca
##sabía
ró
##tambien
##Mon
##existe
cra
##come
##Os
##única
##indi
ór
at
##bonito
##VO
##sign
##mara
##..
##sola
##Argentina
##hubiera
ré
##amb
dente
iencia
##permi
##usar
úper
fiero
##PS
ienes
##insul
##buscar
##cambiar
##Salu
##fútbol
ifica
##enfer
##Presidente
VI
##mía
##Les
##gustaría
##necesito
yas
##11
##último
##ocur
##blan
##Ale
##Juan
##Segu
tira
##doy
ienen
##rato
tió
##sentido
##Cris
##😁
##trabajar
ombia
illo
dy
##Voy
##mío
##tenes
##2019
😍😍
óg
##habi
##Mor
##esperando
ORA
tí
##:)
##club
##econ
##diga
##hermano
##apoyo
idades
sta
gia
##dé
##luz
##Mac
##avis
una
##jugador
##Bien
tores
##sentir
##👀
ers
##viernes
vil
quer
##manos
celente
cando
dé
##sá
##acabo
##Or
##meter
sos
##posible
##tenido
##recuer
mil
vesti
fil
##Alguien
😭😭
).
##Fran
KK
greso
ciales
gues
##acor
ítulo
##art
##ayuda
##programa
##clase
ág
##mé
##É
##Muchas
##Neces
enas
##voto
##pedo
##regal
##Tú
##chi
ír
##trabaja
##eran
##asco
##hija
##abrazo
ENTE
arse
rera
##;
haha
##puer
##hombres
##conocer
##orden
##chica
óm
sab
##frente
10
##gi
##novio
##Ade
##Á
##votar
##xq
##pele
##Vos
##señora
inc
##difícil
##Res
##dentro
##llevo
MOS
##cuerpo
##izquierda
##recono
##trata
gles
##SO
##RT
##aj
pan
table
érica
ko
jando
EL
##candida
gel
##Ob
##18
##Cam
##mayoría
cina
##acer
##puto
##Feliz
##das
##actual
##ninguna
##Uste
IEN
##cua
##durante
##fas
##simple
##arri
oli
##expres
Qui
##libre
##nu
##bra
##recuerdo
##cuanto
##Buenas
##película
ht
##Gran
##refer
ridad
##estan
##pelotu
rea
##cree
icamente
##incre
##Ta
##XD
xic
mena
##don
deos
##equivo
dita
##realmente
años
##quienes
##súper
##orgu
dial
##perder
zon
##2.
##nuestros
imos
##proy
amen
##partici
##hermoso
##acom
##crees
berto
##😍😍
##Ver
inos
CO
##especial
##argu
##confi
##sean
##fra
##acaba
dón
##allá
##loco
##supon
JS
##ido
##verga
##ayudar
##Aunque
##tuvi
ablo
##amar
##YO
##Can
ria
ick
##em
##conci
##conozco
##campe
pia
##mensaje
##200
##Pu
##$
tiendo
##Gua
##pedir
##niño
dencia
pués
bor
##derecha
##JAJAJAJAJAJA
cía
ite
##hacerlo
##jugadores
porte
##....
##cier
##gustan
##hicieron
ire
forma
##hos
turo
##Fern
GA
jan
##confir
dios
##rev
pez
MTVLA
ME
##vídeo
##opor
##Messi
##conten
##Du
DOS
##servicio
##Jos
dal
ps
##enter
ículo
chi
##contar
##siste
##segundo
##educa
##CA
##Mas
##pensando
##Tra
##fil
pes
##edad
##obli
##personal
##14
##investi
##😭😭
##domingo
eremos
##anti
ete
##cru
##mús
ix
##EST
cimiento
ook
mentos
ulio
##gar
##Th
##partidos
unto
😂😂😂
##dando
##guer
Lo
##libro
sas
##et
arme
ji
##entrar
##tele
##vivo
##oportun
##bebé
##/
íble
##pra
##problemas
##cele
##pienso
##😱
yy
ju
##bi
acto
##perro
BI
##ham
##log
##empezar
##bb
##general
##preci
##NA
##bolu
Si
##Prim
##solu
ques
lación
##Mal
##Nada
##agar
##noches
##SU
##13
##😎
##Gu
RES
##presen
ty
##Mejor
##ind
##quieras
##atención
##risa
##darle
##bajo
##según
##salió
lé
gente
QUE
),
##The
##🤣🤣🤣🤣
##gober
##pronto
##sorpren
##DEL
##anim
##Jajajajajaja
ÍA
##plata
##lí
##esperar
##cris
##pac
tral
brar
:(
##Euro
##Dan
##enam
iar
##dese
##esté
##media
##venir
##Sii
bido
dd
lante
##movi
##nacional
##cla
##suel
##50
##LE
fé
dando
##rá
##toca
##número
##Jus
##Mo
##quiera
##edi
##Cada
##Después
##pren
##anun
Pre
ondo
##dias
ador
##onda
##len
##Colombia
erno
éndo
##segunda
##JAJAJA
##twitter
##PA
##situación
##vuelta
elo
##seas
rasil
##regres
dura
##ase
##cari
##última
##pensé
aria
##má
ác
##novia
##organ
##información
##palabra
ceso
##demo
##ele
##Va
##voz
##pongo
.000
bamos
##abur
##grandes
##ps
##Saludos
##morir
##cumpleaños
##Her
tás
##exc
##manda
##perdón
?!
bes
##sueño
##correc
tito
lección
##it
##imagen
##maravi
##niña
##Tiene
diente
##QUI
To
##Nor
Mi
##tre
tión
pm
##Carlos
sss
##😏
##sábado
##🤭
##raro
##inici
##muerte
##diferencia
ezol
ner
##jeje
##mili
##llamar
##my
rlo
##querer
##pod
##Ti
##ahor
rle
uir
##Ami
luso
##Señ
##justo
,,
##encontrar
##mandar
icia
##>
##Mis
##Quer
##apl
##Mañana
rate
##fras
##tur
terior
##sabemos
##Además
##ur
##pueda
istra
erro
##joven
##univer
##aun
Cómo
##Fe
ancia
##espera
ian
##Jun
In
tidad
CU
bió
vado
##sho
##paz
osible
##PP
##muer
##votos
net
##cerca
##az
tarse
##tanta
##chico
##sistema
👏🏻
##manten
##YA
OE
tili
30
ole
##varios
##datos
##16
##música
##corr
##comentarios
.—
dieron
có
##comida
##decía
##junto
##eno
tio
hor
PA
uente
##escribir
ám
##PARA
##cuan
##Felici
##Estamos
##ok
😘😘
ices
##Nadie
##trai
san
##noticia
##contin
##baja
##at
##🤣🤣🤣
lara
##Sa
uelo
##senti
cida
Ma
##comentario
##limp
##AMO
orado
##diver
##tío
##dur
gl
##desper
##agrade
VO
##AR
gram
tía
em
##conven
##sonris
taba
##elecciones
##produc
ies
##PERO
##papá
##Macri
##creen
##tengas
##terminar
ple
##acos
##cuán
rr
##QU
cor
##💜
##clar
tural
##Era
##pareja
!!!!!
UU
##ano
##público
##consegui
##ojalá
turas
##cama
##gil
##Estado
##bom
##cin
##Ayer
##Vaya
EC
bilidad
bajo
##(?)
##??
##descan
##critic
##dra
INA
manas
##Toda
abo
##25
##24
vista
osición
##matar
mios
##Pi
##🔥
##JAJAJAJAJA
tín
zó
ys
##dro
SA
##feo
ça
##bonita
##campaña
tivamente
manos
##tuvo
rito
##recu
udo
rump
😂😂😂😂
mado
##enf
##demos
##CH
##genial
##siquiera
##UNA
##Podemos
##mus
##PER
##jamás
arr
Re
teros
este
vidad
##Fue
##jajaj
cionar
fico
##diri
##liter
ización
##español
##juntos
pó
##jajajajajaja
##Fal
##dipu
##recom
##asegu
##mando
##siguen
HH
quen
ieron
##camino
##queremos
##viejo
##lunes
##Ahí
##café
##habrá
##abor
##significa
##mexic
##dieron
##hermana
##bal
uestro
ons
icha
##cuentas
##uso
##cumpli
MI
##arriba
##ofen
##40
TOS
##subir
vió
##seguidores
##🤗
ow
torio
##Necesito
##futuro
##insta
duro
PO
##nomb
##ges
##jajajaj
ología
aaaaa
##estudiar
##VER
##AN
##Ne
zado
##admi
##resto
##tuve
##🙏
##ado
sar
##Min
uesta
##seria
##dem
ril
##digas
##wa
rano
ible
##PU
##salud
##cir
##indepen
##Gobierno
##cuál
##Oye
##obje
Buen
##centro
pal
##Pol
##toma
##hablo
##lejos
##mentira
mientos
imin
##Ciudad
##tí
##💕
uso
gencia
##ahi
##merece
ah
##lib
##Cual
##efec
##AMLO
##💪
##deben
amo
##podía
##Del
##17
##América
iscal
##inven
##Emp
##loca
dico
ecer
##dolor
##espec
##aqui
##autor
##ESTO
##não
CIÓN
gio
##amigas
##llegó
pende
##esti
##rep
##impres
##duele
##frío
##Je
##quedó
##supuesto
##Donde
##eleg
##color
##Fa
##ech
##ESTA
eeee
##padres
##papel
##chicos
tarme
celona
##alcal
##cuar
##tuyo
##coj
##fran
##siguien
##pasando
##mane
##Vox
##presiden
teo
ime
zás
ví
##gal
uras
gle
##viaje
dica
##hagan
##obvio
##contrario
##PSOE
##Hi
##Hu
ell
##quedo
##Deja
##espa
##🥰
##venezol
##prote
##catal
##Mmm
ei
##ponen
##redes
DAD
ables
##cae
##chin
##reun
##libertad
##hola
##puso
##sur
##mirar
##Chile
##joder
##👇
##políticos
bal
jsjs
ello
trado
gué
##gui
date
##pantal
##etc
##sonrisa
##utili
rido
dis
##afec
##deje
ooooo
rez
##vía
##distin
fía
##alto
ÁS
isión
##prome
##vieja
##defender
##fiesta
eca
ith
##impues
coles
##Tal
##cuento
##carrera
cir
##golpe
##wey
IO
##derechos
##Tam
##hon
##viste
##Nacional
ería
tario
ísima
tear
##juro
##Sos
ciedad
##atra
##sirve
##Parece
ting
##estuvo
##titu
##ello
viendo
##poquito
##imagino
##segura
ard
##crí
lares
Los
##justicia
##descu
##vino
##camis
##verano
tancia
taciones
##vemos
##alcan
##aca
##algunas
llas
ses
##medios
##🤦🏻
##despi
##político
##Gar
##relación
su
##Ter
ord
##LAS
Yo
sidad
##ropa
##ali
lada
##tirar
##dev
##acompañ
##mater
##personaje
ández
##estaban
##orto
##prob
##ag
##idio
taria
est
##pruebas
rí
rios
lau
##Ve
curso
##allí
##puse
##FA
iga
voca
ándose
##Estas
##ilus
##Perdón
##genera
ópez
##pais
wu
##abo
##opción
##vs
dra
##Total
##beso
##coleg
zan
##absolu
##Tan
##Luis
ficiente
##Brasil
##calor
##negro
##vaca
##bru
##hablas
##Tienes
écn
##pil
##ocu
BTS
##vir
##polic
##SA
##Cha
__
##PUE
JO
.-
##EX
##PE
##suce
##mitad
##perfil
##TU
yan
##👍
##bail
##Ri
ila
##AS
arte
##explicar
”.
##pendejo
##mín
##Tran
hu
##proyecto
##dibu
##Che
##actu
##muchísimo
##ofre
##presenta
##increíble
TER
##Ben
##cho
##fuerza
TU
##bur
##pregunto
##ros
##Tor
##ner
##😢
istro
chez
use
##odi
##Copa
##juega
##prepar
TEN
##Gen
##quisi
sación
##Ok
##vivi
##enga
##sien
tilla
##varias
##vista
##gay
##Pon
GU
##dudas
##dejó
cionado
bli
##imposible
##hacemos
##López
##Inter
TR
##TEN
##Seguro
diciones
##dijeron
##AH
##inteli
##leo
cracia
##nie
##tenia
##horrible
##hagas
ecen
vera
TAS
ood
##like
PER
guay
oll
##Mientras
##mate
SS
##compra
Le
ni
##reac
ICA
##atrás
##rápido
##momentos
##compe
##querido
##vuelve
##abier
##Pens
ombi
##conoce
##detal
##venga
##femin
##estuvi
##llorando
##pide
##agre
ticias
##control
##lan
##capaz
her
##Jajajajajajaja
##COMO
terio
##incluso
Ya
##Día
##produ
##valor
##descar
uros
ombre
##puerta
##Jor
##fondo
##educación
##error
andom
tria
##án
hhh
##hin
##rob
##quedan
MTVM
quis
##😜
##llen
ican
##peda
ciona
siones
tivas
##coño
##futbol
##ama
##encuentro
Feliz
Vi
##guerra
##21
##busca
##mismos
##sexo
puestas
mó
##Don
##😘😘
##Esper
##🤷🏻
##amena
torias
##revis
##copa
stitu
cita
##PO
##extre
##digan
##secre
##Barcelona
##frase
##largo
##♥
##oportunidad
ueva
##discul
nas
king
##alma
##semanas
bla
##You
##ojo
##jugando
ull
##Catal
##sig
##piensa
cien
kkkk
##salen
##és
##caer
##aprove
##basura
##hambre
##canal
##Pablo
Co
##seguridad
##mente
CE
##dale
##decisión
aj
##JA
##verlo
##recomen
##junio
yendo
vor
##Algun
##aleg
##preocupa
##sociedad
##puntos
##empresa
zá
ecu
com
##vive
Premios
##cere
##DES
TRA
DD
##cariño
##interesa
##compr
##delinc
##Pla
CION
##Pregun
dría
##this
##dejan
oría
##apre
##fla
##pequeño
##tengan
iiii
ampi
##SER
##pesar
zando
##???
##chis
##salga
##compro
##Otra
##encontr
are
##echar
##siguiente
##•
##leído
##responder
##hacía
##propi
bur
tales
##José
ler
##pasan
##refi
##acuer
au
##Mil
##suena
ipol
##modo
##técn
##sexual
uera
IL
tora
undo
##mundial
##colec
##contac
##buscando
##Jajaj
gna
##DM
##uwu
cada
##Uno
dimos
##cuesta
##duro
##necesario
ñan
##apor
##maes
##llegue
PremiosMTVM
##llego
##tremen
##experiencia
##Sólo
##perdido
xto
##chan
##mm
jada
##lín
ung
##TODO
##3.
🤣🤣🤣🤣
##pis
##hablan
uentes
##even
##Deber
del
gación
##oficial
##arreg
##vosotros
##partir
TAR
##Trump
##leche
##ener
##🤤
##defini
Un
ben
anda
##doble
##fac
poca
actamente
##gobern
Ar
##llegado
##entiende
##cuatro
##avan
##sh
##debate
##mentir
##emple
##sociales
##parecer
##selección
lix
##ep
wn
ramos
##siente
##viola
tida
##próxima
##anal
##cola
##hiciste
##Será
##lengua
##that
##recordar
ilidad
ional
##podes
An
aso
##Europa
##Ru
tud
##Jes
##totalmente
by
ist
ami
##Cre
edad
PE
bio
##cine
##acabar
xi
uido
##Oh
##precio
fica
jado
##celular
gados
##HO
##disc
Quién
##violencia
##cra
##😒
##aband
##examen
##justif
##Ella
##👉
gran
##canciones
##nervi
VA
icen
##rid
ulta
##lpm
unta
##aire
##interesante
##pinta
##Real
##😈
##dejen
##compren
##Maduro
##fís
##ambos
##leg
lito
##orig
##lec
rada
damos
dición
##marca
riendo
##capital
ight
##PAS
##corrupción
##play
##obra
##gato
##euro
##encar
##desapar
##hubo
ase
##estaría
coh
##Mer
##bajar
##excelente
##institu
bios
lip
##Luego
##chor
##za
##EE
##daño
##tes
Mar
##videos
##lamen
##Alberto
##Asi
##pelig
uerzo
##22
##principio
olver
”,
pec
fono
##banda
pito
##finde
vador
chu
##cualquiera
##impuestos
arlo
onas
##😡
##decís
ISTE
##promo
##maravillos
##fel
##preguntar
jala
jen
##arro
tividad
##evitar
##doc
##abajo
pular
CIA
##💔
##Cristina
##ellas
##😋
##famos
##mutual
VE
##tec
##anterior
ZA
##vic
##duer
##andar
##chiste
##zona
viamente
##tardes
##regalo
##HI
SE
##esf
##calidad
##confun
##quede
##sii
##Otro
##tro
##Ahh
##listo
##gracia
##refle
##mani
##empieza
##gobier
##huevos
🤦🏻
##vienen
##tonto
mu
##consu
##mio
##defien
##¡¡
##Sol
##cuándo
zada
##dura
##BU
cera
##interna
dero
##alta
##lucha
##saludos
##compartir
sen
##tenés
##neta
##iden
##leí
ku
##represen
##gratis
ANA
ánchez
##🙈
##esca
izado
##despe
jate
##suficiente
##Jajajaj
##Congreso
##Anda
##oc
##discu
Tu
##directo
?????
##econom
##argen
##funciona
##ulti
lica
##Usted
##ejer
##económ
orn
##vacaciones
##perfecto
iva
##pudo
##Pr
abas
##ador
eso
##um
##dul
##inver
##paga
sea
##twit
##Ros
##periodista
##militar
##tiempos
##Acabo
##muerto
IAW
##últimos
icó
##á
##23
##Exacto
##mach
##deseo
xs
##opera
caso
##pido
ear
##responsab
mino
tt
##tocar
##Ima
##preguntas
##Quién
##Sus
##Mir
##apenas
##guste
?,
##🙌
##Jam
fas
##Vale
##propio
##veci
##prefer
##aguan
##VOX
ker
##estupi
##JAJAJAJ
##desarr
##Menos
##Sabes
##Entre
##prác
leza
##presu
esa
fff
sal
pongo
##jueves
##tía
##ganado
ticamente
##repe
##are
##pequeña
##estre
##imagin
##dicta
50
##colegio
##amp
##Sánchez
##concierto
ush
##Estu
##intentar
##Imp
volu
RAN
##vender
##despues
##consider
Pa
mio
##Cen
arla
pol
##renun
##mad
ella
##tb
##simplemente
##Perú
SI
##rey
##choc
yó
ayo
##Ú
##próximo
##nuestras
##países
##reír
##natural
##ando
quita
##dormi
##blanco
zones
Per
##diría
##silen
......
##pones
##Fernández
##!!!!
##embar
##clases
##entrevista
##PAR
##capítulo
didos
##vea
##gr
##broma
##porfa
##verte
##ganó
##cantidad
##arran
AMOS
##respecto
##js
##Acá
oto
titud
##representa
##pensaba
##Dani
##suspen
##diferente
ins
##burl
##saca
ayun
##deten
trich
##escuela
##Ab
##Según
##apa
##preten
##gustó
##Ban
##pie
gus
##bara
##TI
##Pobre
##Puede
##cargo
##Sen
##corre
##👏👏
##Def
##bab
##terror
##tantas
##Algo
##camiseta
##trabajando
##equipos
##empiez
##tweets
##🔴
elli
rán
veza
##Estos
##adelante
tadas
ela
##puro
##señal
##goles
##salido
isis
##pago
ft
##baño
##orgullos
##chil
##enseñ
##dejado
##declara
##María
igo
##Igles
##borra
mula
##bola
FA
tita
##paci
##disfrutar
##pocos
##líder
ICO
MEN
Sab
##Ped
##Dos
##alcoh
##depor
flix
##Antes
🇪🇸
hy
##baj
osotros
##campeón
🇦🇷
uencia
##có
lez
##nomas
##GRA
##gilipol
##100%
##Lam
##bene
##🤪
jajaj
##explica
##prensa
##QUÉ
##cagar
##Señor
tería
##éx
##candidato
##mode
##Gra
##fascis
ud
##legal
##Er
cura
##Excelente
##penal
##Totalmente
##fecha
culo
##mesa
##Is
##cuestión
mental
##época
pla
##solici
II
##😌
visión
mando
PremiosMTVMIAW
##cans
##Án
##pesos
eli
##Aún
##usa
##tantos
##😳
##base
pira
##far
etflix
##Bon
##Sr
##habría
##Cambi
##)
Ch
como
ish
##💖
##👌
##DIOS
##mej
##Felicidades
##aparte
##cuad
##bella
##decep
ANT
CHO
##muero
ollow
##im
damente
##pudi
##pública
##Estaba
gh
##casos
##juz
sito
##comien
ky
##avi
Po
##pág
ira
##paro
##Ustedes
##Imag
##resulta
rón
##aprender
##teniendo
##flo
tame
##✨
##ideas
##tiro
gura
tumb
##menor
ológ
##Martín
ww
##sois
##docu
ública
bos
##crea
##Cab
##molesta
iro
##telé
##sorpres
##mayo
ércoles
##quitar
##quedado
##escrib
##pinche
taste
##conden
12
##afir
##Somos
uri
##show
##crisis
uerto
##repor
##libros
##estilo
##salida
##At
##ninguno
##crack
##dign
##prepara
##existen
##Bus
##hablamos
##desc
##cojones
jd
terna
cioso
##gén
##siga
##Insta
ditos
ERA
##guapa
##cole
##democracia
##labor
##Lin
##deberían
##ud
##desgra
FI
##Dale
ándole
##olvidar
ise
##llevan
##recuerda
ítulos
##título
##entren
##queres
exual
##tierra
##placer
##tuya
##causa
dilla
##proceso
##cielo
todo
##prueba
##conte
##recuper
##Pan
acer
##90
##80
##verla
##acu
villa
##completo
mamente
##Cos
Cuál
##mínimo
serva
##NI
##porq
##reclam
##pude
##orgullo
##capi
##venta
##Van
##nuevos
idas
##enor
KS
uicio
##afi
irch
##mue
vez
##Ce
##kk
ines
##ár
cle
ximo
ivo
##pega
##joda
##‘
##ran
glés
##=
MB
##exig
##Bu
alda
##Tenemos
##ré
##montón
##elegir
JAA
##sitio
##incon
##top
##favorito
##internet
omas
Car
##guapo
##humor
##compa
fir
##Recuer
gr
##noticias
cepto
##temas
NO
##tren
##confianza
jajajajaja
##Están
##Uri
##fantas
:00
ant
##preciosa
##fer
##dise
##julio
##with
##Au
##Madre
##versión
cidos
##reco
tea
##recién
cionales
##esperaba
my
##propia
##ficha
##cerrar
parte
vada
aje
HAHA
##cuantos
erta
##lol
lin
##temprano
##Eu
##espacio
EEEE
##mó
##desayun
##familiar
##bebe
grafía
respon
##grave
ará
etas
##denuncia
##estú
##💙
##miles
##Estás
##red
##PRO
##juegos
##favorita
jero
EZ
ING
##estuve
##tira
Su
##defensa
remos
##For
##pegar
##AA
##Rey
##bás
##pelotudo
##privado
##Amo
##;)
##Pedro
guel
##Ari
##pobres
##perdon
##lleno
##mol
##Fu
##peron
ment
-0
##Ciudadanos
##atre
##coger
##🙊
##Tampoco
##dijiste
##tendría
##línea
usión
irchner
##FE
##prefiero
##Be
CIAS
##labios
##Pin
##publi
##☹
DAS
##TODOS
##termina
ari
##vio
##detrás
##martes
##memor
##aparece
##pendeja
##cuidado
##recur
##abrir
##😬
##aquel
##noso
##liga
##personajes
##your
##<3
##Instagram
KKKK
##LI
##agres
##saco
##humano
##rica
##mama
##ladr
##diferentes
##víc
ms
##elimin
##conseguir
##JU
sable
##alguno
👏🏼
##Pos
Para
diste
##recha
pul
##prom
##mete
##torn
tró
##Primero
##:'
unidad
##env
##Do
##convi
##chicas
gor
bili
##Ho
dp
tiene
##porqué
##prohi
tique
##debes
ENA
##coche
sion
##fans
##Har
##Gal
oogle
##cá
##Bor
ardo
##Joder
ght
##besos
##artículo
ok
encias
gaba
##dó
##probar
##sangre
##SAL
##llamado
##hubier
##Sigue
##quita
##mirando
?.
##fiscal
quina
##chocola
rones
Pero
tór
##fandom
dable
##precios
book
##pura
mite
drá
ampions
##cita
##lóg
uales
ney
##primeros
##som
##querés
##fues
BO
##apoyar
anas
##suelo
##Obvio
##llaman
##sua
##mata
##😂😂😂😂😂😂
##Santa
LL
pin
##hubiese
MX
##robar
UR
##común
##Segui
##what
ulo
##episo
##aman
vés
##ul
##banco
##hospital
##supongo
tec
##vayan
##arte
##prefi
timos
##compañeros
##love
##ras
##azul
BE
##decirle
##Super
jus
##idiota
uito
##só
##saludo
##local
##TAN
##Pen
##bla
##teléfono
##😆
##caus
##cerebro
##selec
JAJAJAJAJAJA
##mutuals
##😂😂😂😂😂
##entrada
##correcto
##ke
##reli
##narco
##policía
CAM
##fri
##payas
##entera
##empezó
##Mucho
dona
##habían
##der
11
##JAJAJ
ISTA
itch
##piso
##humil
##leyendo
🇲🇽
tinos
##playa
ceramente
TES
##Tom
món
##pul
##basta
##Gab
##historias
##ESO
##tenéis
osos
##Tranqui
##solución
##dispon
KA
##dom
##querida
##necesidad
##nuevas
##mensajes
##inglés
ong
##enamor
##vuelvo
##LL
##compl
inación
##campo
icho
##piensan
zi
##tuits
##aborto
óven
pado
cero
##provin
##spo
nn
##quizás
##MÁS
Na
##Mun
##peli
##acto
##Sor
##esco
AAA
##género
##feste
##Cs
##euros
##animal
OOO
fia
##reti
menes
##asis
entable
##oposición
Ven
ruguay
(?
##compañero
vamente
##Venga
##malas
##titular
##Fi
tará
##mercado
RU
##Uy
##Sobre
##prin
##exactamente
##PRE
##debo
rida
##explo
##PRI
##quisiera
##elector
##barrio
##daba
##resultados
##embargo
##moral
uevo
##asus
##60
##llena
##poca
##llu
##constru
##&
ity
gón
##☺
##Die
fra
iores
##Barça
eral
##películas
tres
##Vas
##honor
olina
##VA
##refiero
##4.
Di
##tatu
##mez
##Nic
BLE
##Bra
talia
##acus
##mirada
bel
##razon
##depende
tana
mbé
##subi
##entendí
##alegro
##jefe
genes
##original
##Fer
##cár
##hayan
ent
##hable
##necesi
vid
vic
Del
IM
tarte
vela
serio
##piz
##supone
##Miguel
##verde
##parecido
##calla
##recibir
JE
##estudio
##mat
##sui
##Hombre
##mantener
##fuiste
QUI
##huevo
##AY
##Pal
##meu
pada
##resu
tali
##lados
##nen
##literalmente
##grup
##MAS
gentes
mica
##HER
##alcohol
##resultado
##tendrá
iii
##enfren
##periodistas
##perros
tw
DOR
##estará
##amista
##marcha
##piel
##jajajajaj
rrr
cate
ilo
##🙃
##haría
##acostumb
##colo
##ESTOY
VER
##comunidad
##mental
PI
##SON
ares
##vende
icada
##parar
##oye
ándome
##sepa
##lamentable
tismo
##invito
##CD
##pija
óvenes
##peso
##pensado
##neg
##not
##av
rimon
##descon
yos
##inclu
unda
gimen
##fol
##Jorge
mate
##participar
tú
##compara
##podido
##MAL
gol
##habéis
##través
##Santrich
##carajo
##tenían
##carne
##MAR
##:((
##Esos
##vac
##Comen
##empresas
##felicidad
##Hermos
PAR
##robo
##respuestas
##cien
##cago
##colombi
🤣😂
##xdd
##muestra
##éste
##Den
truir
##Buena
##tranquilo
##psic
pico
vie
##🤔🤔
##Guar
Hola
##formas
##desas
##ocas
##argumento
##romper
##Han
##ansi
tiago
##llegan
bran
##aus
##manif
-1
##AC
DER
##entero
##FAV
##derro
pr
tale
##2018
##simp
##ciudadanos
bert
##necesitas
##probable
aría
##anoche
##pierde
arias
cular
##responde
##carta
##repar
##ile
##inicio
##pedido
##envidia
##Abro
ruz
ther
ína
ciado
##miser
##sar
##CAM
ezco
##dep
##TIEN
##Ojo
##gustado
anti
##veía
💜💜
##MAN
##EEUU
ws
##abuela
acebook
##–
##asesina
##GO
##quieran
digo
Ah
##cuánto
uma
##sorpresa
##ON
##seguimos
##fich
##calles
##Anton
##funda
##mais
éndose
##tomo
uerte
##valen
##cuel
##fea
##Boca
##but
Can
##sabia
ñado
:30
##argumentos
##juicio
##Gente
##corte
timado
AAAAAAAA
##reto
##metro
TRO
##profesional
##poniendo
ters
##wh
##cárcel
UES
##haz
##salgo
col
##terrible
DEO
##corto
##om
enador
##Ka
horab
eas
jajajaj
##Valencia
##tmb
uuuu
##admin
##JAJAJAJAJ
rib
##Sh
##carro
rita
hhhh
##enorme
##caga
##habia
##constitu
##US
##embara
venida
##belleza
##faltan
##bue
##RO
##mier
##gordo
##✌
##munici
##brazos
##negra
##🤩
##Rep
##tratar
##intento
##muertos
##📲
##arma
hs
amer
sor
jj
gios
##uma
##Casi
##aceptar
##JAJ
fes
##MIS
cuador
illas
##Sería
##pasada
chando
quilla
##esposa
##bandera
lle
mentar
logo
st
ings
##eras
##parecen
##sueños
##26
##éxito
##esfuerzo
ficio
/0
##lograr
##NADA
##vc
##menti
##bil
##partes
##culp
##finales
jue
QU
##adi
##Alex
##70
##triun
##izquier
igan
iler
##⚽
##escena
As
KCAM
##traer
nes
##ded
##gilipollas
##deses
##actitud
jeta
##motivo
tidos
##desta
##discurso
##Cara
menta
##Tr
##perra
ós
##ge
##voc
##dí
San
capa
##extran
álisis
##venezolanos
##hacerme
##Ud
##crush
TOR
##ching
##espalda
##malos
lando
ástima
##mates
horabuena
##RA
ñe
oración
##segundos
cisamente
##disco
oro
##PI
uña
ési
ienta
##empa
##BO
##curso
chan
##ofer
MG
##Vol
isimo
##cham
18
##madru
##interpre
##crim
ciéndo
##economía
—.
##vin
jó
##bre
##miércoles
##oro
##cuarto
##escrito
##😍😍😍
##jóvenes
##tin
##perm
fr
ZO
##contrato
15
##Iglesias
BL
##escon
tias
tista
##diario
enos
##bailar
##españoles
##objetivo
ónica
Vamos
##Netflix
##mencion
##cero
merica
mán
##was
##Bel
##ignorancia
ernas
gullo
##Chi
##Ga
##clás
##caes
guez
##Fin
##dudo
Las
##vuelva
##fres
##Uribe
##fuese
eeeee
##????
exico
##afuera
##series
##nena
##colab
triz
##incl
##encontré
##cie
##Pregunta
##ses
##ocurre
lita
##toque
##MEN
##asu
##volvió
##mostrar
##Constitu
##cambia
##cinco
KCAMexico
hats
kd
##acaso
##:3
##protes
##mames
##Manuel
##cach
##llevas
ny
##shi
DES
##dejaron
tente
kook
uta
##FU
grantes
##memoria
##presente
"?
Copa
##saque
melo
##divi
ox
Pro
##extraña
rás
##human
duras
ámara
##crear
##Cuál
##Ad
bus
ÑO
##cultura
##ridículo
elas
dados
##repu
##negocio
onos
clus
##falso
##nosotras
##racis
##nombres
xima
##ponga
##GRACIAS
##viv
##uni
##chav
##página
##humanos
##sera
##QUIERO
40
##DA
kes
##sopor
##ascen
ferencia
CHA
##Todavía
##recomiendo
##Ap
##dignidad
##cancha
##salva
##MAD
##sector
##We
##TV
deces
dremos
##rol
##MUY
##HAC
cesa
##mic
##HE
##cumplir
##pers
##Ana
##num
##Jesús
##régimen
##bici
##entendido
##llamo
##fl
jito
##imbé
PM
##meme
##bir
##emocion
##móvil
##modelo
##Rivera
##AB
ciente
ota
##ene
tillo
##sueldo
teca
##viven
##curios
##estén
##tercer
##pantalla
##iban
und
tieron
##abandon
pación
##escribe
##paja
##tem
##hdp
##Diego
##dejas
##apare
##silencio
##Mara
##Dice
##altura
##hones
##gane
##Bro
ag
##cli
rimonio
##capacidad
##polit
##juntas
##perten
##fre
##Supongo
cian
IR
lados
##perdió
##jejeje
##delante
##logra
##descub
##casual
##histór
tf
##Jue
##28
##anto
##condiciones
🤣🤣🤣
##cantar
ph
##ingres
##cocin
##pidiendo
ENDO
##médico
##fru
##ec
##pecho
##Julio
##ou
ducir
##alcalde
##continu
##serán
##arru
##celebrar
mmm
##miemb
##viva
##adop
##conoces
Des
##stan
Com
##trá
##aver
##quin
##animales
##ries
crip
##estabas
##Rom
##torneo
##descono
##corruptos
##criticar
tui
ísimas
##prima
##1,
##inteligente
lano
dicos
gg
tori
##cog
##ataque
icando
##fuego
Pue
##mia
##decirte
##grupos
##app
segu
##conoc
##Escu
##propon
##etique
##Dar
##femen
let
##homos
##cán
##cate
##Feli
##Vic
##tomando
##posición
##lee
##Javi
##aclar
):
crá
21
##LG
mbo
##dulce
##proyec
##😭😭😭
##papa
##felices
rioso
tie
##pagan
EMP
##vuelto
##alum
Ca
##cuidar
##podri
##norte
nor
##2015
##estés
##copi
##tio
MAN
❤❤
##dato
##lab
!?
TAN
##cerveza
igen
##Tar
cam
##energía
##zapa
##gracioso
##drama
##fli
##EU
jeje
##JO
##ahorita
##seguramente
##chocolate
##acerca
##Llevo
tian
ORTE
##piernas
##regu
##Ayy
##dime
##Amigo
ze
##eta
##out
##verdadero
##provo
##tol
##necesitamos
##ingen
##💥
mágenes
Ex
##igu
##Estados
fu
##BUEN
##visita
HE
##quedé
ide
##infl
##haré
##pies
##sobr
##minuto
gaste
##non
##debemos
##oscu
##Cuán
##ron
##Segun
mita
##alegra
##hahaha
##Dime
##Wey
##batal
##vayas
##separa
니다
##nomás
##Amigos
##pesa
##suyo
rores
##sorprende
##VEN
dedor
timas
jjaa
##Abra
now
tega
diós
##echo
##vengan
##up
pida
##cabe
##peores
##pedazo
##amer
##brin
##Él
##encuentra
##cobrar
##Justo
##encuesta
##mereces
ld
##@
uy
##esperanza
##pasas
Como
##Veo
##Gon
##🚨
##evento
##estrate
##comprom
ali
dientes
FK
##conversación
##mentiras
##rojo
##by
##tecn
tto
jeros
##Pensé
##anime
##bri
##solamente
LTI
##pocas
km
##tercera
##Feder
##have
llate
##destru
quete
##Cá
LIANT
##🎶
##injus
##sigan
##tér
JOR
##apun
##claramente
##expresión
##yendo
zz
##vengo
##estadio
##coinci
##Hahaha
daba
##obliga
##Bol
ang
##Andr
##reno
tory
##trae
##Antonio
##🙋
##comiendo
##Sigo
viste
tagon
##Fuer
##ultra
##volun
uestros
##escuchado
##verás
##infi
##Sec
##escuchando
##termine
pir
##ambas
##felicidades
##Az
##consec
##cré
##negocia
##bote
##preocupes
##identif
##electoral
oya
##conoci
##USA
##Ej
##colores
##some
##provincia
##Deci
##ple
##bac
##contacto
##cic
quista
ienda
##Jajajajaj
##hará
##Polic
##kil
##escucho
##500
Buenos
stru
##Mucha
##post
dalu
##murió
##desgracia
anes
Hay
##sube
##cobar
##enseñar
##sobra
##conocido
##piden
##celebra
##Leo
##Hol
##mejorar
##lluvia
##sigues
##vídeos
##enferme
##Felipe
##MO
icaciones
idó
tm
##estren
##gustar
tillas
##expul
##ocul
ley
##Mari
##Unidos
cidente
LIANTINA
##considera
etto
##mezc
Gracias
icana
##desastre
éro
forme
BER
##encontra
##delito
##Rafa
##meta
##BA
##River
##tranquila
##rostro
##contestar
oradas
puta
ÑA
##noo
##radio
eto
##Bas
##Sam
##Aman
##David
vision
venido
##pedi
idal
##pendiente
##pidió
##mami
##😭😭😭😭
##char
##aquellos
##vuestro
##prac
##Tre
teral
##andan
idar
##ignorante
##pata
!!!!!!
##web
##caro
##importantes
ays
##pob
##Clar
##terri
##leyes
uencias
##asquer
##dólares
##intentando
gir
Fi
##cabron
##dejando
##Has
##reunión
illos
NA
##27
##bos
##SIN
##informe
##ánimo
##aven
cara
##Hos
##Ke
##Nosotros
##cub
EP
roso
##internacional
##mul
##here
daste
din
##5.
##deman
##DÍA
##Entiendo
media
##goberna
JD
##repi
Jun
##CAS
rente
##Siii
ezca
Ser
rey
##tru
##europe
Ra
hab
##TRA
##queso
##pusieron
##🙂
##Alf
##diputados
GUI
##MEJOR
##✅
##avión
ificar
##principal
##Ur
mia
vante
##directamente
##aviso
##Final
##niñas
##opciones
gs
##inicia
##máximo
##profesor
asa
**
Ten
##ka
##Dra
##perdí
##Agu
##ago
##cobra
##🇨
##hechos
##➡
icon
##into
DIO
##reina
MY
##ESTÁ
##coca
HO
dro
##interior
##obras
##mismas
##CRE
##😪
##supera
##jajajajajajaja
erop
##depen
##pasaba
##contenido
##Cono
dezco
##especta
##tac
##conduc
##sup
##anima
##Sergio
tate
##mexicanos
jajajajajajajaja
Cor
##República
##:/
##responsabilidad
##tonta
elos
##bron
##usando
##extrañ
##propuesta
##Dé
##fren
##PORQUE
##vice
##one
##chaval
ONES
ducción
##maravilla
YA
tistas
##Puedes
ffff
##gustaba
Sal
##aquella
istos
ANDOM
dá
##acaban
##central
tener
##concha
ical
##moda
baja
##Discul
##PR
gante
##vecinos
##administra
##carga
##acordar
........
##ejerci
##León
fortun
##usu
--
pios
##😩
##On
##droga
##FIN
##pongan
##movimiento
ISTEMO
##😱😱
##Ol
##irse
lamen
##expli
##alegría
tible
##cabello
ted
##queja
##locura
we
##negar
##finan
##razones
##lugares
##corta
##RES
👏🏻👏🏻
lido
##presos
##veas
##interés
##perfectamente
##queria
##wor
OOOOOOOO
##Ortega
##tristeza
##tremendo
ONA
##superior
##nal
##pudiera
##termino
##Flor
##imágenes
##Muchos
mis
##comba
##unico
##permitir
##CAR
##tuviera
##extrema
bras
arma
##realiz
##vuestra
gotá
##horror
fin
##cancel
##mina
tube
##recursos
##inú
##abri
##multi
jer
##puedan
##Tig
##PAN
##você
##reflex
##Noo
JAJAJAJAJAJAJAJA
ans
##1-
##obviamente
álogo
##plaza
##errores
##May
Alguien
##viajar
tarios
##ens
##Guaidó
##análisis
##fake
##monta
SO
##😄
##literal
KD
##Wow
##visitar
##prior
titos
##tetas
##osea
##Ram
mática
##CAN
##larga
ane
yen
##lic
##cayó
##absur
##tienda
##resta
##Sevilla
tribu
##NOS
##verme
tream
ponde
##efecto
##popular
IG
##Liber
##galle
##ganan
##💛
/10
##confirma
##mari
##clave
##acon
##Todas
##correr
inado
ECES
vidu
##😀
##🏆
game
##intención
##jaj
##♡
##conce
##glo
##amistad
IT
##delincuentes
##pic
##Mario
##palo
##escucha
##Cer
##salvar
##técnico
##Univer
doba
##PUTA
##papi
jsj
##ji
##vá
##apo
##Mur
##💚
##parecía
##36
##Amiga
bum
##😍😍😍😍
uestas
##Direc
##Ins
##universidad
##sep
##dictadura
##premio
##irre
##estáis
##recon
##muere
jón
ecé
cillo
ym
ciada
##2017
##COR
##absolutamente
##proces
##terminó
Ro
##independen
##amoo
##Ellos
##Cierto
##darte
uelve
##nega
ciles
sible
dea
##hermanos
##vean
##seguido
24
##pasaron
##ESTE
##pied
Ha
##reconocer
##políticas
PS
##Dónde
selo
##adelan
UL
##tratando
##opinar
miendo
##quiso
##priva
##marido
##andas
Lu
##DO
>>
##lloro
##minha
##deporte
##usan
##caí
tici
##acciones
abe
##comparto
##porno
##pibe
##decirlo
##tod
##Cui
##Santiago
##hablado
##delan
##delici
##idi
##deberías
##argentina
##👏
##Andrés
##talento
##ub
éctr
##teoría
onia
##Salvador
Th
##acción
##vai
##gorda
##encantan
##profe
##medida
##pizza
##retras
##Gri
##Pien
##Haz
##Duque
##trato
##millon
ÉN
##estable
2.
##calen
##[#
##link
##AHORA
##Joh
##mono
?...
##dig
didas
##Clau
##legis
ITO
chado
##agradecer
##arras
##episodio
##bloqueo
vina
elle
zard
App
##detalles
##progres
."
##Bla
##pelea
##mayores
##dedo
##veremos
##juez
##novi
##adul
##sensación
pón
lic
eco
##humo
##simi
##saliendo
##Sé
##votado
##caliente
##Tienen
##manga
##exclus
##necesitan
##ó
##demostrar
##Tras
##responsable
##limi
##cocina
##gobernar
##quejar
##hacerle
##uds
##dedos
🤔🤔
##asunto
##tl
peración
##posta
##dona
##flor
##Corte
##repro
##estaré
url
##individu
17
tus
##VOY
dena
##compañía
nia
##española
AME
teriores
##curiosidad
icano
sin
##patri
ÑOS
##deter
##permite
##diputado
##acar
##hacerse
##BIEN
##elig
##primo
?"
##cáncer
##All
The
##descen
CHE
##Osea
uld
##alre
aaaaaa
##jugado
ure
##1000
Bar
##sober
##🇲🇽
ernos
##entradas
##HAY
##llamada
##falle
##fron
##podrías
##Ecuador
##camin
##pareció
##falla
vida
vile
tem
##venden
##concre
##números
##separ
##empiezo
##podrían
##Encima
##ig
##Gol
##dm
úl
##obser
##Confir
##⚠
alla
##Tanto
13
##vais
mann
##merec
top
##hipo
##rt
##Mam
##199
##Lor
##just
bé
MTVLAF
##caja
dere
uenta
##periodismo
¡¡
##radic
##JAJAJAJAJAJAJA
##Incre
ASTA
##aden
##bello
##mel
##aplau
##Ai
##gano
##planeta
##Siento
##interven
kers
##Ste
##Ron
##peru
##protagon
##🙄🙄
##tramp
##mexicano
##congreso
ático
vamos
dentes
##perfecta
##dió
ichetto
##^
eropuerto
##Quizás
##Ney
##dejes
##trabajadores
esto
##vestido
cieron
##Ala
##fór
##😞
##Cola
ñera
##Disney
##completamente
##plante
##⠀
##//
##parque
##recibi
##maravilloso
##precisamente
icul
UNCA
##Calder
##encantaría
##servicios
##darme
doras
##pollo
##Sil
cter
##letra
##permiso
##Ley
antos
##tarjeta
GAR
##xDD
##ego
##ada
##PEN
##posibilidad
##pases
##primeras
##hacerte
##Pri
uelas
##Ton
##suici
##memes
##iguales
tarlo
##Carmena
##sacado
##il
##ésta
##cuello
aja
amientos
##follow
##BTS
##riesgo
##emi
##jur
##Wa
##sacan
##boluda
arle
##Debe
##😝
mático
##enserio
##Jamás
##corrupto
##35
##ministro
##helado
##Star
##exá
Una
##evidente
##guay
wa
##Dicen
olución
##Falta
##metido
ticular
##pros
##concepto
##siglo
##China
Nos
##informar
##ris
up
##dirección
____
vieron
gina
uestras
jera
##revés
##pode
##Joa
##BE
bón
##FAVOR
depen
cula
##Facebook
##Rodr
##entrenador
##fuck
##rata
ículos
##Comun
##boda
##jode
##coña
##Francia
##olor
##ever
##NE
inten
orar
##apelli
##boludo
##300
##Hac
ife
##TL
úa
Par
##Uruguay
timi
Hab
##armas
##Daniel
##ai
ERE
##sel
##pana
teras
##pelota
##Google
##compras
tención
iados
##Ber
ket
##domin
ínate
émon
##puedas
##fis
##Ara
Soy
##clara
##familias
RAS
##ricos
??????
##~
##Puedo
rin
##hayas
##HERMOS
##Za
gió
##divertido
Venezuela
##😃
##Reci
camos
###2
osas
##patr
16
##cambios
##acabó
quero
##tipos
##imbécil
##irme
##completa
...?
##solidar
##elección
##Person
##rompi
##proce
##madrid
torial
rue
##TA
allo
lio
##Whats
##decis
##olvida
ornada
nal
MAS
CON
##imaginar
buen
undar
##rabia
ense
##NOO
##Bogotá
##Cataluña
##compor
##detalle
##complicado
🔥🔥
ani
##vaina
##abre
##NUNCA
##Ama
ham
rados
##What
##aquello
ign
wei
##baby
yyy
##partida
##gustos
##Empi
##incor
##etapa
##beber
##Martínez
##colectivo
Qu
##lla
andro
##durmiendo
##madres
lie
cepción
##Bil
##igles
##compromiso
##defin
##investigación
xa
##fueran
##excusa
MTVLAFANDOM
##miro
##Santos
##His
##gatos
##Fiscal
Li
Cuán
##Algún
##emoción
##viviendo
##gif
##maltra
##brazo
##AP
##debido
tración
##ara
##els
##precioso
usta
##rar
Mas
##intera
##45
JAJAJA
caba
iona
##té
##cuestion
izada
##General
##curioso
##temporadas
DEN
##rin
áles
##sentí
rimas
##vota
##situa
##declar
##pendejos
fic
CIAL
##rompe
##empu
tubre
##gro
##agen
##estrategia
atro
zca
##rí
##amigui
((
tición
##CI
##vieron
##importancia
uuu
##alterna
Sin
tz
centes
##faz
fobia
##entrega
##Calla
##oper
##consejo
##oficina
##info
##aso
##respetar
##merecen
##llo
##lástima
##29
##🇦🇷
##Aaa
##carre
##FELI
desa
unya
##ór
##sorry
TAL
##mola
bon
##consul
riel
##aho
##payaso
##fracas
quia
tadores
##nariz
##privile
##director
##deuda
##FI
HHHH
##eléctr
##Cuba
##DIC
##ejecu
##polla
##esperamos
Nunca
##Nar
byl
##sad
##sala
uto
2,
ller
##pasos
bito
##CAL
kin
tiano
##dedic
##Liga
##Primera
mamos
##colum
##frio
##COMP
##hincha
ERDA
##cance
##ponerme
eis
##hp
antas
##contexto
LAS
vers
##Lamentable
##decisiones
##lleve
##vidas
##cambiado
##mañan
eración
##publicidad
##realizar
##velo
##rele
##disponible
##Esas
##corriendo
sh
##señores
##instagram
##pobreza
##pelu
##hubieran
##Amb
##conec
iend
UT
##pensamiento
##moto
##lastima
##VE
##punta
lia
##Realmente
##gestión
ernobyl
##1)
##Gan
##Dere
##canta
##decían
##estudios
##consulta
##diré
##lógica
ulos
##Champions
ionante
gosto
##know
##baile
##gobiernos
##Gui
rique
ábamos
##denunciar
##reacción
úcar
##defiende
eda
##cliente
bros
##IMP
citos
##pareces
dias
##Pasa
##tab
Esto
##Cel
##drogas
##materia
😱😱
##2020
##temb
##levantar
##votantes
##inmedia
##6.
##HOY
day
##Ángel
##adoro
ganme
3.
##seis
##ilegal
aldo
íc
porque
##esque
##rum
amble
##piensas
ólogo
##faltó
##Dr
##desarrollo
##alu
ueve
##tocó
onso
DU
##homo
##alv
##MUCHO
##producto
##Villa
##exámenes
árez
##comunista
##Ed
##ideal
ppe
##victoria
##mien
##CR
##inoc
##falsa
##Ali
##discrim
##publicar
##Bi
##esperan
##gira
##dueño
##liberal
mania
##amenaza
pá
##supi
##ambiente
1.
##há
##Enhorabuena
##😥
sero
loria
##pec
ingos
jajajajajaja
##Guer
quitos
##Neymar
##jornada
##García
##presentar
##población
##fumar
##Mel
##enviar
##WhatsApp
##ajena
cómo
##obses
##destino
##demuestra
##cámara
LOS
ándolo
FAN
##Av
##mover
chito
##cuales
##Vidal
##Rodri
##oh
##bril
##fórmula
##Cuanto
##mag
##audio
##😁😁
tiza
##compañera
##adoles
##exag
pósito
##Noooo
##Fernando
##sinceramente
##fic
jante
##pési
##bolsa
##opiniones
##referencia
##Mexico
##sigui
##barato
##sexy
##💋
##podrá
ção
ank
ongi
mago
##rue
##refieres
gido
ritos
🤷🏻
##indus
##generación
anía
EMPRE
igna
🇧🇷
##compré
##Op
##mato
##Franco
##concen
##bloqueado
##Marce
##País
íguez
ística
##Ningun
##ki
##crítica
Euro
##arreglar
##seme
##desarrol
##hun
ícula
##same
##2016
##mere
##pasta
eme
##incom
##pela
orra
##─
##Bes
##rece
##confor
##empe
,,,
##peligro
##presión
##GU
oooooo
##depres
##semes
##🇪🇸
ElC
Mu
##habitación
jita
##😑
##Disfru
##YouTu
##verdadera
Bo
##acti
ército
##Obra
##imper
##Blan
##empecé
##decirme
##afirma
##TAM
dame
##suje
14
bil
##mac
##fab
##Vil
##ace
##conocen
pando
##sentía
##entienden
##Ger
##democrá
##Eh
##SOLO
##adentro
##aga
##desn
##bolas
##argentino
##vul
##vou
ken
##mini
cé
##planes
##aguantar
😡😡
##ore
##War
trando
##catalán
##Calderón
uno
##sufrir
##Ojala
##suave
##Digo
##universo
tador
##vuelo
##Depende
fen
CK
##nose
##semi
##entro
tén
deras
##VAR
##SOY
tiz
##Alcal
##abus
##explicación
##Algunos
##infin
##texto
##oferta
##macho
telo
##particular
##Escri
rla
verde
Man
##quizá
##refiere
cua
andez
"...
##TENGO
##Rodríguez
##💗
##paciencia
line
##agarrar
GUN
##Bet
##caracter
##fuerzas
cán
FF
##ibas
##bendi
##Gre
uelos
##medidas
##COM
##desin
##subo
##intelec
##Francis
##dele
##estr
##venido
bara
##more
##SOS
##frus
##estupidez
dicial
##Pd
cés
##famoso
##secreto
##.....
##repetir
viene
##productos
lipse
##perdiendo
##LLOR
##Kirchner
unal
##||
##beca
##Llor
##últimamente
##rollo
kémon
##creas
##pico
##FO
##MAM
rer
##aco
chen
##Hern
Son
##CDMX
##estando
##privada
##LLE
##maestro
##locos
##artista
##Andalu
##Nuestro
##jugó
##gasolina
##2,
##abierto
##Tenía
dimiento
##pelotuda
##Grande
##quise
Ahora
##nuevamente
##chile
##salí
##facul
itario
##estudiando
##cuantas
##fracaso
##comunicación
##imagina
##tuvieron
torno
quez
Dónde
##valores
Hoy
##fuente
##SIEMPRE
##Ahre
ore
##notas
##apos
rs
##figura
FO
##bul
guiendo
##⁦
lamento
##breve
chada
##fijo
##elim
##Rus
##explico
##fuimos
##Mundial
##sentimientos
GEN
ioso
##CUANDO
##policías
##WE
##critica
##declaraciones
##Agra
##princesa
zamos
##Cruz
##engan
##escal
##sta
##conclus
##casualidad
##jajajajajaj
##tenías
##recuperar
milio
##Arri
##»
##JAJAJAJAJAJ
##putas
##títulos
isten
##eter
##mir
bs
##aña
teando
##patria
##presupuesto
##viejos
##insulto
##Aparte
xd
##toy
##demon
##Defini
##Cali
##lindos
##vdd
##clásico
##abogado
ULIANTINA
##stream
órdoba
##Extra
##hecha
##argentinos
##tier
##ojala
##Prefiero
##vueltas
##ponerse
xo
##aeropuerto
leo
##conocí
##feminismo
trol
jitos
##llegando
##dejé
HS
Todos
cionados
Col
##gre
##desapare
##refor
##ber
pider
ITA
##regreso
gión
##anteriores
uega
##Bue
iros
##recuerdos
##ilusión
dillas
##ridic
##Inten
##Hor
##atras
##perman
##benefici
##HD
##gym
##papas
##hablaba
##fiel
##🤧
##Felicitaciones
##ejercicio
formación
ENTA
##llevó
##prop
##lá
tanos
##relaciones
##Em
cing
uesto
##Ir
##bille
estas
Or
##apete
##(2
##Isab
##llevamos
##adap
CT
##encontrado
##lea
##damos
##azúcar
##manipu
##correspon
XI
rles
##luna
##gradu
pool
##Nicol
rero
##Má
##médicos
##Mmmm
##fon
##🤨
##añ
##entregar
##pleno
LAR
##😅😅
cales
##firma
##públicos
##Oli
##veh
izando
uawei
pales
##from
PN
ges
##actor
##meto
##llevaba
##"¿
##📲:
##Bea
##tarea
##metió
CopaA
##invierno
##arbi
##Ahhh
##Hemos
##traje
cadas
##isso
##hipó
##enca
##horario
##Segura
##existir
##regalar
NE
##Inc
##rit
##árbi
##Catalunya
##batalla
RR
##decidir
##roja
##vom
NI
##impon
##unidad
##jueces
##Hey
ORTEO
##hel
##Ano
##quedamos
##🗣
PARE
##Juli
##Amor
##--
Cuando
##debajo
quillo
##masco
##Kar
##huele
##Conse
##Ramos
##get
##congres
##diez
icanos
##inm
untamiento
Go
##Ñ
UEL
##ERES
RC
##Dí
##tendré
##soñ
##seres
##troll
lico
##sw
##blanca
##despre
##correo
AH
##afecta
JAJAJ
##rode
##Wil
##Ál
##matrimonio
##atacar
##Presiden
ssss
##hotel
##campeona
iche
##roto
##muchacho
##señorita
##recib
##distancia
##Constitución
##Pichetto
5.
##🌈
##rosa
ánd
##Ren
##Plan
##juven
##física
CAR
##Increíble
##bibl
##dorm
##carita
brero
##jubi
##My
##comb
TRE
tti
##recomenda
##físico
##semestre
##obs
##cuántos
gin
zis
##Ó
##limpi
##estuviera
##ganando
##juegan
##leve
##😠
##caca
##interac
##enfermo
##nervios
##podés
##profun
##New
##escen
vó
##dibujo
##Gi
##descri
##sobrevi
##opinan
😍😍😍
##extrañar
##superar
##Edu
##orgullosa
males
##estad
##terminado
##vivimos
##diálogo
##GRAN
vando
##dormido
##diablo
##edición
##cientí
##see
ván
##distinto
##Cul
##nam
##provoca
##militares
##universi
##YouTube
minación
##cierta
jon
##salieron
##aplica
ertos
GAN
udos
##IG
##víctima
##Fab
##salvo
##Bal
##dispar
##evolu
BRE
ísimos
##Domingo
##intereses
##queriendo
##SÍ
##TW
far
##herman
año
ALE
##quedas
##captura
##abuelo
##suma
##presencia
##iré
arado
##Hazard
##Compar
##bronca
##incapa
##casas
##Aqui
##héro
##menores
##descanso
##difun
tam
##Aun
##humana
##Br
##área
##tiran
##revisar
##expon
##full
##🤢
##mande
quin
##disculpa
##Lon
##olvidado
##TIENE
##pacto
Carlos
##jugada
/7
##DT
KE
##Dipu
##incen
##Policía
##fes
##MOR
##edu
##puñ
##2-
##time
##ilu
##enfermedad
culos
tano
##transporte
olog
##apoya
##turno
So
##secundar
talo
##Estar
lace
##diste
##laboral
##defendiendo
##criminal
hone
##tono
STA
##Var
##ansiedad
##asesino
##🖤
##raza
##compre
😘😘😘
##imaginas
##igualmente
PP
##🇵
##cens
##imbe
##dame
##ayudarte
##novela
##PRES
##sacó
##3,
##naran
May
##genio
💕💕
##borrar
##bio
##busco
##caminar
tuvo
##Javier
##todavia
##Pé
##llamas
ppy
##ído
ciosa
##vecino
##cantando
##LU
##Obviamente
##🤣🤣🤣🤣🤣
##material
AJ
##😕
##buscan
##llegaron
ID
##Hon
##Empez
##dir
##sabiendo
ister
##víctimas
gtan
##lesbi
##mega
kemon
ciando
##escol
##manifesta
.......
##Fui
mpl
##hostia
##quedarse
ionales
##Obrador
tit
##caball
##peo
##entiendes
ionado
##descansar
Ver
##cena
##II
##inn
##logro
cemos
fac
##dicie
##sabor
guenza
##Far
23
##Murcia
##bols
dible
##feder
##abierta
bri
##bl
##cura
##inútil
##ideología
##vienes
##brutal
##😣
##invitar
temos
truc
tiembre
##cobarde
6.
sapp
##rival
##podéis
##Dec
reras
##renuncia
##sencillo
OSA
##capítulos
##refería
##candidatos
##tos
##inteligencia
##magn
MIN
##pronun
Canal
##investiga
##Amancio
##bis
ude
##Alej
antil
##dieta
##Últi
##Podr
##cuentan
##Suerte
##caen
Fiesta
##flaca
##sospe
##atender
##notif
incido
litos
paz
##gastar
Ja
##facil
##caído
##estres
##NUE
##nac
##conocimiento
##Apro
guas
##7.
##chupa
##Jon
##convoca
##impul
##pongas
tim
hay
igh
##lindas
##moder
pel
##libres
jame
rimiento
##🥺🥺
sssss
##jodas
##Supre
ficial
##ciencia
##sucede
nnn
##Iba
##Peña
##polé
##nene
aas
ulas
##castel
##tia
##homen
##ani
arra
ork
SU
red
chita
##confes
hos
##intenta
##bonitas
##Basta
##Tremen
##millón
##reforma
##SAB
##maldito
##sienta
##barbar
##discutir
##ritmo
##Nah
##muñ
##reme
##indign
##quedaron
##Massa
##Leon
##conflic
iana
##Nueva
##bomba
int
##disfra
##caras
##Francisco
##torta
ivers
##fatal
##abrazar
##magia
##Toma
##Álvar
normal
##conciencia
¿?
##estimado
##premi
##tirando
##neur
##creía
##pequeños
##Cons
AMLO
##AU
##Isabel
##Petro
##rara
Uste
????????
OSO
##despertar
##😘😘😘
##maldita
##saludar
##ál
ificación
ÁN
##consumo
##supues
##mandan
##coma
##tá
##convertir
##iglesia
##fué
ISI
parta
##desen
##desayuno
brando
##insegu
isterio
##trabajos
##Debería
##zur
##accidente
JAJAJAJAJA
##comprado
##Orgullo
PU
##creí
##cierre
##amable
##diseño
##dejamos
##vete
##Mill
##kirchner
CAN
##MD
##reven
donos
Ju
inales
##resolver
##salio
##Simple
##kkkkkk
##Centro
tranger
##micro
##repente
usto
amblea
##🧐
vemos
##ONU
##him
titas
##energ
ificado
##acceso
##transmi
timo
##VIDA
##stic
4.
##pelear
##Tae
usas
🤤🤤
##garanti
##últimas
##competencia
##Tri
##XDD
##Normal
##pene
ach
##presentación
##👏👏👏👏
##sacri
land
mada
##tie
##Aca
##comienza
gara
recto
##silla
##estudiantes
##satis
quín
##suele
##HACER
##bebi
##cafe
##ame
##Necesita
##Gor
exuales
##Tener
ALI
##ree
##homosexual
oyo
##roba
##faltar
tiles
##faci
##desi
##producción
##lág
pica
cados
##DOS
##siesta
MTVLAPARE
##acabe
##Alemania
##Odio
##tomado
##tv
##Mauri
íjate
tumbre
##31
Equi
##enferma
##dientes
##Córdoba
##sr
tman
eria
Jo
##cabo
##devuel
##dile
##tó
##mierdas
##ín
DIE
##%
##madrugada
##vengas
##CFK
dme
MENTE
##John
##aprende
JSJS
##catalanes
##adiós
##estábamos
##gim
##matan
talidad
##probablemente
##culpable
ate
adamente
##ademas
##ponerle
##PD
ance
##circ
##seguía
##comparar
##odia
##infer
##Paz
##Martin
##decide
##Italia
box
##venía
GE
##It
##arroz
íz
##utilizar
##putos
##costa
##diciembre
##familiares
##preso
##Esp
Quieres
##flaco
##daría
CL
ilar
##tóx
##proyectos
cks
rias
##ruta
##Cualquier
##too
##callar
##encantó
25
##fichaje
##hinchas
##plás
##MIERDA
##Carmen
##will
##escuché
##Justicia
##(20
##construir
IMIN
##👋
##paté
##pedí
##llegué
estar
##preven
##inau
##popul
##TER
##cagada
##Sar
##Dor
##tome
##cortar
jajajajaj
CanalFiesta
##Habrá
":
##civil
##grá
##atro
##luchar
##insultos
80
##comenzar
tn
##económico
##Nooo
##MADRE
🙄🙄
##toman
##Uff
tones
LTIMA
junto
terías
Nota
ológico
##recomien
##heteros
##inmi
##mues
tienen
##Much
##legisla
##alqui
##Chris
##desma
60
##Sw
unas
##resen
unt
##ultimo
##estrella
##Habla
ink
##sim
ónico
##Bur
##comenzó
7.
##LPM
##chab
inda
##quie
##Ante
##río
uig
💖💖
##tremenda
##izquierdas
##bloquear
##pasé
##despa
##sepas
##decidido
peda
##hicimos
ática
##papás
##resca
##propios
tle
##2019.
##sacaron
Jue
##conseguido
ls
##suda
erado
##📌
##resumen
##inci
##NECES
##discusión
##Pala
##Tele
##acabas
ché
##flas
##puestos
##equivocado
##Sub
##regla
Cre
##llegas
ezas
##poli
ose
##apellido
##acomo
##definitivamente
##alumnos
##motivos
##suya
##Espera
lecciones
..."
isima
ionar
##igualdad
gkook
FANS
##LGT
##👏👏👏
##pibes
##casti
##Nuevo
pita
##prometo
##fle
##cool
Esta
dería
##exten
##sienten
tamiento
##pelos
##programas
entos
##😐
berna
tios
##lujo
##probado
##venezolano
##convo
##Ves
##restau
##gasto
##Griez
🤮🤮
##migra
##Huawei
##disculpas
##trib
##corazon
adas
carra
cy
##crecer
liza
##medias
##asal
##indirec
##Apren
art
##habló
##pego
##chino
##disfruta
##conversa
##day
##Secre
yn
##quem
##ganamos
##insultar
iss
##Definitivamente
solo
ezo
fecto
YO
##respeta
##🤠
##escribo
##DON
AAAAA
##perrito
,000
##feminista
##olvido
##regresar
Tren
😭😭😭😭
cripción
íste
##gesto
##Coño
##afición
##puertas
cres
fal
cón
##únicos
##Campe
##independiente
##destro
##Comp
##got
##orgulloso
##socialista
##aa
##asegura
Res
ticar
Ni
##Llam
misión
😁😁
🥺🥺
##vives
##publica
100
##cuch
##AD
##escla
##agosto
##subió
##já
##HACE
LAN
##preguntan
ajes
##pala
##FAL
##Sue
rie
Os
##Jaj
##disp
##tontos
##hogar
##Fav
##sumar
##infierno
!,
##robaron
ald
##idioma
##muu
amar
##vuelven
##columna
zaron
##Alguna
##Roberto
CIO
CIONES
rieron
##tomó
##constante
##kilos
##comercial
##JEP
##Pokémon
🇻🇪
##soft
##solos
##arrepen
Foto
##personalidad
plica
##Oigan
##🤤🤤
##resis
INO
##VOS
##wea
##olvides
##sacando
Final
##alrededor
##contando
##mur
imiento
orro
##míos
##Morena
##letras
##😤
##eval
##octubre
##📺
##clima
##difici
##entreten
##justificar
##esposo
##miren
##aprue
hing
cuando
##mila
ditas
##reporte
##>>
##muito
tren
##femenino
##habido
##meten
icardo
##pañ
alu
##reir
jsja
##comparación
##criterio
##GENTE
##madri
ALES
##bebés
##licencia
Madrid
##oído
##Pérez
##ciudadano
CN
##espejo
drán
##about
##cargar
##comenta
##actuar
##Noruega
##Hilo
##sensa
leta
##aburrido
##GAN
##cartel
##contrar
##Sra
##CARA
##medic
##Blo
teles
##vivido
ándote
ONO
##anuncio
##castellano
##machista
##Mé
##favoritos
##IR
##frases
##Char
##cro
MM
iencias
sera
ló
##necesitaba
SeTe
##Listo
##pasará
##darse
vimos
VEN
##enamorada
##limpiar
##live
##botella
has
jajja
##críticas
##piedra
##ingles
ess
##maravillosa
##pense
ram
##acarici
##naturaleza
##cabrón
FE
mmmm
##plato
##coher
##KK
##evidencia
ciera
jin
##sientes
erse
##sali
##ocurrió
##voluntad
##hetero
##negociar
##bobo
##team
##Tur
amá
##mascul
##jodido
##visi
mido
##wtf
##miembros
Día
##DIS
##sirven
##esquina
##culia
##debió
##admira
SeTeNota
oos
##tera
##Moreno
Viernes
##tuiter
guar
ning
##🔥🔥
##arco
##funcionarios
##ee
##LES
##star
##salimos
##amas
##pereza
gla
##amoooo
##id
ísticas
##valiente
demon
BR
##siii
##ota
##semejante
pecto
##aguanta
##Tus
##PUEDO
lamos
##Mayo
##lavar
ifa
##preparado
mg
##Patri
##Dejen
🙏🏻
##now
##agradezco
##pica
##noooo
##SUS
##Ufff
##álbum
##empezando
##espectacular
##Lea
burgues
##querían
##tkm
##bendiga
##aber
##Había
##llevado
##enfo
##aplicar
##formar
##Cap
##tacos
##DEJA
##☕
intendo
##perdida
Game
##inclus
##flores
##metas
##indica
##caigo
##🙏🏻
##Siiii
?🤔
##pactar
##angel
##sacas
Phone
dré
DR
##sabéis
##comprome
mites
##ventana
##amores
##gall
##despierto
##charla
##Spo
##recibido
##Puta
##✔
Tra
##DECI
##VAMOS
hua
##doctor
##apunto
##estúpido
##AMOR
##velocidad
ics
##OP
##tern
##especie
##delincuente
##PON
##Gil
terra
##km
##balón
##barba
##duermo
##NADIE
##plena
ns
##Fo
##Españ
segui
##2)
Mo
##10%
##OS
##oposi
##opina
##Recuerdo
ciación
##chingo
queta
##reser
##alcanza
##poten
##facha
##MUCH
##acabado
quía
##guardar
##costumbre
##calma
##económica
mba
##Podría
iverpool
##Lee
##😮
##existencia
##🎉
##nooo
##QUIEN
##Trans
##sentimiento
##redu
diz
##retro
##apla
##Uds
##UR
##Señora
##parcial
##olvide
uida
##Lucas
##demostrado
ríe
##juntar
/2
##if
##consen
##Partido
##Pel
Super
##fechas
##propósito
##tendremos
9.
##unir
##fila
##distra
amento
##similar
##tas
ismos
##Recor
##ESE
##Seguimos
##nove
##irá
##recibe
MAR
dell
##contento
##Unos
##Sel
iversario
##icon
sex
##ESA
##vergon
##queréis
##ingeni
##explique
##grado
##aguante
##pagando
##capo
##Mc
##off
##Seguramente
##Respe
##jiji
##PASA
##rei
##inep
ífico
##costo
##grabar
##wow
##profesores
##Jajajajajaj
##humanidad
##empezado
##convir
##Lar
##Rosa
##urib
##Mus
##ultima
##sentencia
##Aj
abilidad
##unf
##mmm
##andaba
ÍAS
습니다
##desespera
##conquista
##falto
))
##Black
ficar
aragua
##Mexic
##sp
ifi
##Abrazo
##correcta
##lider
##favoritas
##Adi
##actriz
irar
##opinas
##Demas
##Junio
CRI
##camar
##mire
##tax
inaria
##rubia
##Andre
90
Martes
han
##abuso
##Nuestra
##fama
##Queremos
##2014
##OR
##ñ
pop
##tq
##Puebla
JAJAJAJ
éramos
gracias
Dia
yyyy
##VERDAD
ique
##Chá
##prácticamente
máticas
##Maria
##ACA
##Nicolás
##aprovechar
##fascista
##positivo
antoja
UDA
##corres
ERON
##indigna
##lees
##decepcion
##chupar
ARISTEMO
CarlosR
##acepta
##muerta
##nació
##ala
cuen
22
##Japón
방탄
##cerrado
sivo
##facultad
##Sá
##í
##pér
##verlos
##desemp
Más
##cerc
madas
Ti
##Tenes
##Primer
##hables
##tendrán
ding
##reda
##sinver
##tocado
oni
##ino
sis
##ela
YY
##dificil
##😓
##❤❤
##siren
##adic
##invita
##principios
##homenaje
##ruido
##Valverde
##urgente
😂😂😂😂😂😂😂😂
enda
##Jejeje
##Quin
##propa
##senador
aunque
##Mundo
##pague
##pasen
##repito
##Gabriel
##comunistas
ib
##pensas
##Sur
Trendy
##Cambiemos
##fascistas
##PC
##chau
##actos
##pá
##depresión
íos
##haha
##Jose
##ganador
ficos
dice
##PUEDE
##huel
##오
##paquete
##Bru
dela
##eliminar
3,
##James
##Viste
##Puig
##requi
ecta
##triunfo
##lectura
##llora
aman
##tendencia
Nueva
##MUN
##GUS
##Inf
juana
##🤦🏽
##Colau
##ocurrido
mera
##Social
##humilde
##hermosas
##seguirá
diar
##operación
ambio
##instituciones
##Oro
pain
##LIN
##escribi
##Aww
##Club
##Vir
TIQUE
vido
tival
##Andalucía
##Tigres
##origen
DAR
eando
##generar
play
##decimos
##ricas
##Ge
##llegada
cs
piro
##Uh
garon
##jugue
##contesta
##ahh
##borracho
##fuertes
!.
ux
##Bern
##autoridades
##copas
##volví
##who
##gobernador
REC
timiento
##aparecer
TF
##THE
enó
##eclipse
##😡😡
##vimos
##sano
##capitu
##experi
GI
##à
uns
##sou
##vamo
##rega
##maneja
##bec
##sonre
##good
##religión
uación
##serás
laga
##infancia
DDDD
##💜💜
##Viva
##Chu
OOOOO
##ponemos
##Voto
Ne
##nerviosa
##pared
##mueve
CopaAmerica
##hubieras
##enemigo
##tamaño
##pasamos
##Vie
##use
##escribí
##Ánimo
##OMG
##postura
##guardia
KKKKKKKK
##dedicar
key
##diciéndo
exión
ritu
##AMI
cilla
##Emilio
##cenar
##Quizá
##gimnas
inge
##pista
##presidencial
##hermosos
##despierta
##💩
ciano
##isla
##palos
##Bravo
##hagamos
##importan
##absoluta
icky
wer
##💞
##BAR
viv
##rea
pones
##concurso
##parado
##lágrimas
##delantero
##término
##boy
estima
##Liverpool
##Cla
umen
##comes
##apoyando
tara
##famosa
##figu
##Valen
##santo
##comunicado
##consecuencias
##función
CarlosRight
##empiezan
chelet
##riendo
##gab
##Neta
##Ricardo
##abro
Sí
##enamorado
olas
Ac
##Valle
iales
##propuestas
##considero
ally
ture
pue
ijo
##ETIQUE
##uñas
##Zara
##Acaso
##absurdo
70
##Iván
##aburrida
ALA
bando
##predic
esen
##mág
##artistas
##opinion
##zo
Argentina
DeC
##alimen
##hipócri
##198
##asesinos
##😔😔
##viento
##recibió
##portada
##pillar
##part
👏👏👏👏
500
🥰🥰
##vini
##camisa
##Chernobyl
##investigar
##Viernes
##parejas
##sof
Pe
till
##Doc
##sil
##seamos
##they
##🤷🏽
##faltaba
##código
##jard
##inocente
##wee
##gos
##Gusta
##aclarar
##irrespon
##jugo
##tapa
##Griezmann
quel
chin
##OB
lético
##impunidad
##Sebas
##trabajan
EEE
jé
##cadena
iends
##salgan
##Selección
##HAHAHA
##Ministro
##Salud
ili
##porta
##Sha
JOS
##Lindo
##amooo
##FUE
##influen
##subido
##harta
##acepto
GR
##asom
##echa
cla
##armar
##Unas
##Mauricio
##histórico
##maestra
bó
##romp
##cortes
##cansa
##Albert
##quedaba
Ba
##Piñera
casmo
##suba
##🎙
ets
##engañ
##Igualmente
##Invi
##confirmar
##conferencia
##organiza
##inversión
##escuche
(?)
##llegamos
tuber
bación
cente
##servir
##televisión
##acusa
raste
##españa
##septiembre
##Hermosa
##amamos
8.
##☝
aaaaaaaa
##estrellas
##Miren
##mentiroso
##😫
##Sinceramente
##consigo
INI
##jal
##encuestas
##Exactamente
##firme
##Esperemos
##empleo
##date
##orien
mao
##callate
zados
##🤦🏼
##pese
##banca
##burla
##mediocre
!!!!!!!
Todo
##duerme
##adver
##▶
##Argen
##colega
##Fr
##juzgar
##piola
##sales
##🌚
##fala
atch
##́
##teníamos
##feel
TM
##estru
##Angel
##ratas
##acuerdan
##implica
##Dia
##Luz
##vaso
##Central
##Gonzá
##logo
##pelis
izcarra
##alar
##socialismo
JAJAJAJAJ
ivos
##adivin
##debi
gers
##motiva
##bole
esas
##ine
##típico
##aran
##sorteo
##Reg
##mencionar
##Hagamos
##Termin
##Quieres
##ofrecer
##escenario
##🇺
##clo
##favs
tinas
##Pq
##escuchas
##💁
ving
##reales
##práctica
bloque
taro
##caiga
##SAN
##esperas
##profesionales
##salsa
##apareció
##jefa
##met
##rema
##conocía
##firmar
##8.
yec
##Pare
iamente
sec
##ERA
##decente
##^^
##arm
##bias
##Aus
sual
gones
##🌹
##estúpida
##ETIQUETA
##distintas
##Laura
##medicina
##Poco
##pierdo
tua
Quien
##hs
##peña
áticos
##modi
##bendiciones
##acoso
tarle
##tomas
tez
##google
Tú
##comienzo
##envío
##digi
##2000
##❌
##zapatos
AMA
ética
##socio
tive
##encantado
##cumpl
##detec
##Pienso
##iron
fle
##¡¡¡
##pilo
##aumen
##santa
##desagra
##fana
tancias
##reca
️⃣
aré
##Cosas
##seré
dria
##cuarta
##Boy
##parlamen
vol
##Ji
##entró
##debatir
##estaremos
##sitios
##hy
##comunismo
##dará
##infra
##conocemos
##bonitos
omía
##CHA
erancia
##cierra
ener
##agenda
GUE
quería
amor
temala
##lenguaje
##hues
Jueves
##salario
##Same
##game
##Marcelo
##Dame
##cató
5%
##wo
##infantil
##VIDEO
##peligroso
##Len
REN
##remo
##GOT
##religios
##ambien
##levanta
##🥴
##tendrás
##rebel
quil
##gustas
cl
##aprobar
uento
##Pinche
##comido
nd
cienda
##Quisi
##►
mel
##invitación
##conviene
Cris
##junta
ree
duser
demont
denes
yeron
##proteger
##Bri
##aseguro
##delicia
##devolver
##intelectual
##volviendo
##judicial
CAL
boy
##ciudades
usos
tol
itando
##presidencia
##actú
##aplicación
##Boli
##cóm
##manejar
##patas
##☀
##hamburgues
##corri
Pres
##ladrones
##JS
hile
##intervención
GRA
mico
GAS
##Educa
##dedica
##antigu
##😈😈
##tela
##wn
##derrota
##distintos
##serlo
##Sois
##Rafael
reta
BT
##Perdona
##apetece
TENCIÓN
##refu
##ángel
##derechas
ast
bin
fos
-2
##numero
##Ps
##pusiste
##Alejandro
##ESPA
##hacían
##transi
##Navar
##HOR
caron
##votaron
##maquilla
##Tres
##tex
##organización
empo
##Claudia
##empezamos
arto
JIMIN
##Ki
##mafia
##González
##retirar
gáis
kkk
##Pone
##Tranquilo
laciones
##regular
dario
##une
##32
##unica
##ciego
##any
todos
##div
##escribió
cista
##Díaz
##laburo
LD
##convencer
##vuestros
uerzos
##consejos
.,
##Alba
##ocasiones
dencias
Pol
##competi
45
##nin
##Oc
omi
##Dijo
##barra
##olvidó
##risas
##definición
Somos
##arries
##saga
##AÑOS
toso
##peronismo
##román
##cállate
##chido
chó
##abrazos
LIO
##visión
Eurovision
1,
##ofrece
##😛
##emer
jara
##usur
hen
##cansado
##miserable
##cruel
##ARMY
##feministas
##TODA
##colombianos
##Sale
##mantiene
##Comenta
##Bran
##til
##afortun
##🙌🏻
##absoluto
##cerra
Lle
##🤭🤭
##joy
##electr
##Segunda
##Game
##Jimin
##subiendo
##Historia
esión
##Fuerza
##pantalones
##xfa
##oportunidades
##Recién
##Xq
sopor
##Anoche
##ko
##HORA
##pinches
##maneras
##quedando
derecha
##Dig
##sei
##fondos
##ETA
tch
##Jim
👏🏼👏🏼
monos
##ASÍ
##tope
mpre
##Internet
/3
tify
##terren
##racista
##nacido
##fallo
##follar
##debía
ómez
##estados
##pagado
##exhi
##clientes
##madrile
##agarra
##anuncia
diencia
vs
##chur
POR
imas
bilidades
##foi
VOTE
sado
##golp
##hombro
ors
erar
##nalgas
dam
##quejas
##verguenza
##Esc
##perju
##Rap
##identidad
##coraje
nada
##muriendo
##10.
cione
##she
##meo
terrey
##Sala
##Fel
##trampa
rillo
rael
##capaces
##publico
untos
##sentado
FC
##tuvimos
ral
##asqueroso
##quejan
##pensa
##pierna
##construcción
##preocupar
##Efec
##extremo
##metros
jajaa
urs
##sesión
##PRIM
##camp
peo
##rell
##chistes
itaria
##Federal
##autoestima
##HU
dillo
##embarazada
ístico
##llame
##Ori
##ciclo
tions
##boba
🤦🏽
##Universidad
##crema
##viajes
##😊😊
##cocinar
##caída
izan
dala
##>:
##guap
##perver
##America
##nefas
##bot
##ganaron
##Batman
ulia
cinas
##incomo
##teor
##abril
##nudes
##robado
Rec
##Perdon
guna
##porfavor
hta
rosa
##caminando
pea
##postu
BU
tter
##Costa
fTh
tela
##Trib
##ampli
##Suárez
gil
##cuida
##Consejo
##sincer
##capitalismo
##cuadro
##Indepen
##gata
##lógico
##deberíamos
##ot
##quí
Eso
##ende
ahora
##Casa
##consciente
##This
##rock
ámica
##Institu
carse
##reconocimiento
##impresionante
##Ll
##iniciativa
##Cristiano
##pc
ders
ÉS
##oso
##Rio
centa
##Durante
##asegurar
##hol
atía
##cartas
DIA
##She
CD
Eres
##barde
##Sho
##back
##jsjsjs
##birra
##Junior
##Ray
##impresión
##mandó
port
##propagan
##decidió
##pierden
cuesta
##gays
Cam
##Incluso
arnos
##💃
##Hugo
eses
##Cállate
##fantasía
##🤯
##impo
##cobran
SSS
##itali
op
😈😈
##biblio
imp
##tengamos
##dialo
ñez
##Toy
vación
##activ
##candidata
ándola
😭😭😭
get
##Imagina
##preocup
##propor
ncia
##new
##escuelas
##App
##prisión
bados
hon
fras
read
##encuentras
##pito
##prove
##single
##bañar
ingo
##produce
##ayudo
##😴
##quedarme
gida
##niega
##aclara
HI
##pls
##veré
##sopa
##parezca
##estruc
##preguntado
##fiestas
isco
dade
##musical
##insis
##Cuánto
##Gas
##Justin
ilers
##Gómez
abel
😂😂😂😂😂
gano
##escribiendo
',
##vd
##asado
icula
sp
##prime
##humi
##imbecil
##continuar
vistar
##UE
##🤘
##Verdad
blos
##ejército
enio
##Simplemente
##Cambio
##Lol
##transpar
AC
iada
amentos
##Ele
##teclado
##consigue
oliber
uco
##iría
##oscuro
##:0
##publicación
##guarda
##salía
##censura
##votan
##bailando
##idiotas
##miembro
##😲
##Lan
eh
##condición
##autoridad
##sk
Bien
fit
yes
otas
##siete
##JAJS
##soltar
tizar
🤦🏼
##Rusia
##naranja
pper
##tráfico
inete
##personales
pecial
##deseos
##edificio
LES
##cambie
enzo
fThrones
##metes
##bad
##ladrón
##situaciones
cino
##actividad
##parto
##online
##bras
##preguntó
##tris
##primaria
##aguanto
##preparando
Da
##cuadra
Está
##ratito
##festejar
##JUN
logía
##jajajaa
##vacío
##아
##felicito
##Joaquín
##indic
siva
##audios
oooooooo
MGMA
##Plaza
##cigar
##descubrir
##violación
alls
Ho
##Estimado
real
tuales
😅😅
EX
##mana
##demanda
##francés
##Jajajja
LLA
éndome
##IM
ANTE
##sarcasmo
##lentes
##conser
##dejaste
##jug
##gon
##estación
##antic
##Cuén
##decepción
##comunicar
piración
##perdona
##FINAL
visa
##inmen
##dama
gular
##Sino
Quer
##Media
##especi
##corresponde
##¿¿
##rompió
##😰
##Jack
##administración
##negocios
##say
##encanto
##clubes
##chinga
##Llegó
yente
##representante
GOT
##serían
##HAB
##Wal
##mapa
IIII
turales
##radical
ugh
##determin
##did
##estafa
izó
##engañar
##besitos
##participación
##bienvenida
gena
##sent
##because
rich
##pelotas
##⭐
Fe
##MIN
CES
##400
##niveles
##tae
##susto
##logrado
¿¿
##jamas
##logró
##pez
##intro
##fija
##🤔🤔🤔
##adecu
##terminé
TH
##haciéndo
chila
##cansada
ablemente
##REAL
##habías
##🤷🏼
uar
27
##ye
##Cho
##9.
trada
##Ko
##capitán
##mezcla
##ERC
##MES
##justamente
tirlo
##hijas
aaaaaaa
amilia
##prohibi
##especialmente
goría
##Ariel
##presento
##elimina
aca
##verdes
iles
##norma
él
##estrés
##Puigdemont
##ponía
##Vuel
##Aires
##enemi
##trauma
UP
##GA
##cria
##hombros
tarra
##aaaa
##solucionar
##Agus
##Hermoso
##tecnología
##Contra
##BUENO
ercoles
##supe
##industria
##empren
😍😍😍😍
##quemar
dol
##MM
##nem
##jugamos
##tercero
sm
inho
##rumbo
##Bienvenido
##chat
##arrep
##Viol
##tonterías
##ocasión
##archi
99
##saberlo
tazo
##persi
##50%
chera
##alla
##elegido
##recomendar
##Sac
##piscina
teria
##colombiano
##finalmente
ked
##Capi
##triple
##involu
##sujeto
##Foto
##enlace
##cambió
##exigir
##gritar
inario
JUN
##piña
##ayudan
ítica
##arancel
##Hacer
/19
##llamando
fan
lores
##gustaria
##subnormal
##sonido
list
Lunes
##menudo
##límite
ichi
##encuentran
##costado
dale
cierto
##ataques
##jajajja
##supl
##acce
kas
bierto
##morena
##want
##qued
##ᅠ
tnite
##llamó
##tuyos
##chisme
##crimen
##vato
##jajaa
##árbitro
##Rico
istemo
##Interna
##cont
##máquina
##líderes
MGMAVOTE
##Portu
CR
##formación
##pedimos
##Gustavo
ço
##lava
##diz
ub
##flip
##testi
##usuarios
##tumb
##coord
##digno
##Cuándo
##negros
##emocional
##chiqui
##propiedad
##cuesti
##Guardia
##puente
entemente
##mías
##luces
##cue
iende
##portero
##👏🏻👏🏻
##migrantes
##):
zaba
##caballero
##⚡
##promedio
##empleados
##Juego
##traidor
gica
way
Cas
##ciertas
##básicamente
##insopor
##One
##escor
##Fan
kis
##sanidad
##Mentira
##Alonso
##33
##Ken
:0
inter
##Aprove
##whatsapp
##esse
##activa
##need
##campeones
##costó
##plazo
##zonas
##CE
RT
##trom
amb
viar
##sintió
##omg
##Fir
26
/5
##_
##semb
##entran
##sabado
##Norte
inte
##filoso
##vel
##gru
##fines
iamos
##PERS
ñal
##altos
##amix
##asesinato
##Nico
Este
##🤣😂
##nervioso
##empresarios
viles
##autos
##actores
##sempre
##Nom
##parada
##reglas
meno
##planta
##entrenar
##supuestamente
##weon
##ordena
##caballo
##tortura
##circo
##ascenso
##lig
ensa
##seu
##estarán
##😇
##signo
jim
##boletos
##(19
##labur
Ay
##qe
##discre
##estudia
##Peor
##every
##Recuerda
##QUER
##lateral
ESTA
##girl
##Pantoja
##inva
##Vizcarra
##harán
##grito
dicional
mito
##usado
##contras
##Disculpa
##York
ego
ibles
##futbolista
##hijue
##ahorrar
dem
##burro
##piba
##parezco
##pelotudos
##novios
garse
##Arias
##diferencias
iano
íritu
##🤓
##Cur
##darles
##seguí
cidas
##levanto
🙌🏻
##Guatemala
##plástico
😔😔
##Sorry
##andalu
##molestar
##Nu
##Quisiera
##vox
##descal
##pastel
##Nam
##defienden
##apuesta
##Rodrigo
##extranjero
##presi
aran
##mexicana
##Pra
##Puerto
##invitado
Ci
##tierno
##Spider
México
##Depor
##when
##trage
##Bos
##decia
-20
##soci
##bye
##opino
##🔵
##Mag
##😖
##99
##pésimo
##Adri
##champions
##órdenes
##cómpl
lida
##critican
##trama
##Eduardo
##altas
joy
##intimi
##causas
##Cuidado
##Necesitamos
Jul
##gam
##fern
##VEZ
##md
##Tin
##tirado
##toco
grar
sus
ElCora
##asigna
cionario
##siguiendo
##bet
##SEÑ
##explic
##complejo
##alter
táculo
##traigo
##aumento
~~
##constitucional
##oí
itana
##porcenta
##vil
##ambi
##deberia
##bús
##limpia
##denuncias
##incómo
##podrán
##Cuenta
##Actual
##Red
##¿?
##sana
##bestia
Val
##gloria
Ta
##Mos
##acordé
##podrás
##hiciera
##̄
icante
##delitos
##look
##falsos
##Callate
##departa
##Bachelet
doro
##Uber
##pesado
##Lamentablemente
##nacer
##puesta
##jugaba
##Mat
##Efectivamente
##roban
##fría
##paseo
##peronista
hyung
##resuel
##capaci
penas
SV
##48
vy
For
,,,,
##perdi
##ídolo
##llamaba
fío
##previo
##chance
##Neg
##Ty
##AF
💪🏻
##rendir
##enero
##pm
##demues
##meterse
##retiro
##Iz
##Jajajaa
##usas
##diferen
”?
ISMO
Liga
##dormida
##aparecen
##Panamá
##ft
adora
ady
##Metro
pata
##sem
zoso
Equivoca
##Evi
menos
##crean
##autén
##envían
##gras
##documental
##otor
##empezaron
teralmente
##best
!!!!!!!!
nie
##actuación
##Frente
##propone
##convertido
##inneces
##supre
##yu
##fichar
##profundo
##Marta
gadas
##suben
##Senado
##crédito
##agregar
##pat
##Iglesia
##fundamental
tanas
##hospitales
##rio
##please
##saldrá
##organizar
##Cr
eld
##impro
##polémica
##vege
##vay
##factura
##reba
##podamos
guito
Colombia
EMOS
##COS
##ésto
##categoría
##querías
##사
##Fox
##arquero
##💪💪
##saquen
##tapar
ttle
Pas
##maf
##protesta
##🤬
##pretende
Orgullo
DeLa
dina
##cultural
eado
##ternura
##PERD
udar
guera
##asesin
##OK
sonaro
##frontera
vé
grado
##tratan
ily
##condena
didad
empla
##insu
vidades
##narra
##cumplen
##Comunidad
##pasión
lay
cons
##fase
allen
##abue
##150
##camion
##crecimiento
##cau
###1
##conflicto
##digamos
##Atlético
##regis
##120
##random
##Plata
##cagando
##🥳
##técnica
##Goberna
##fasti
##gasta
##retra
chis
🤣🤣🤣🤣🤣🤣🤣🤣
##estudiante
##salón
##essa
##llegará
##quitan
##conclusión
##diab
pame
##IGU
##copia
##hashta
##respondo
pazo
##dudar
##revolu
##sosten
##mism
##shit
##virgen
##pilla
##recoger
##cambian
##pagas
##gigante
##llenar
##pregunté
##mesmo
##hate
##Deb
##dueños
##campeonato
##importar
##ajus
##😏😏
##sigas
##traen
déis
##alcaldía
##Asamblea
##core
##relacion
##!!!!!
##lento
##profesora
##vine
ANO
Perfil
##pato
DORA
##sentirse
##ed
##aniversario
tinho
##protección
##3-
##controlar
##cosita
##grados
##imagínate
##HABL
##feria
##muchachos
##convierte
##fuentes
##alg
##admiro
##ocupa
##coo
##Cuantos
eeeeee
##VAS
ik
##reflexión
##socios
orge
##emoji
##inseguridad
##Mala
##pur
##Interes
##Triste
##🥰🥰
indo
NuncaSe
##600
##acuerdos
final
presidente
##Genial
##ofender
##FELIZ
##indis
##utiliza
##ALGO
##estra
##spoiler
##amenazas
##Grupo
##cache
Porque
##actualmente
PON
##Señores
##over
KPO
##HASTA
ctr
GENTE
bis
##independencia
##how
##beneficio
##pag
##destruir
##extranjeros
##intentado
jajajajajajaja
##FF
##Yes
##pesso
##Raúl
##estuvieron
##sín
##ponte
##alternativa
ciste
sando
##presidenta
Gran
##chileno
##habili
##Alta
##Carta
AHORA
##terminan
nar
##poderes
##metiendo
torios
##sepan
##Tuve
##bala
##tarda
isiones
##gimnasio
##enoja
##merezco
ánico
TINA
##plano
##cantante
##robó
tb
##compi
?!?!
##Harry
##imple
soe
##muera
##reconoce
##Paul
##tomate
##Traba
##necesitar
ural
Sabes
##masa
##enterado
##consegu
chill
##mejora
##penales
##carcel
##adultos
##justifica
##analizar
##listos
##previa
##Betis
##escudo
##Álvaro
ooooooo
##disfrutando
##ana
bate
lying
##ventaja
dían
##descargar
##suen
##confiar
##Deberías
jimor
##sexuales
##auton
##pueblos
##DONDE
##BB
##Enrique
##llevando
##casar
💪💪
##perio
gros
##marihu
##lamentablemente
##EMP
##delicioso
##mejilla
##sensible
##Fuera
##herram
##colegios
##Linda
##bolsillo
##pagamos
##declaración
goza
##cargos
##EMI
NuncaSeEquivoca
##🇧🇷
ficientes
rona
##Ayyy
##TH
##mató
ganta
##pantalón
##mame
##niego
cher
##iPhone
ológica
##youtube
ERTE
##mayoria
##Padre
##preguntando
##solidaridad
##barco
##socialistas
##Tijuana
ócra
viembre
##enco
##gris
##Extraño
##fascismo
##DAR
##💪🏻
##plu
##DU
##borde
##Bad
##marco
quién
##estima
##Hom
bie
har
##devol
##creyendo
##define
##Tribunal
##penas
##desayunar
##Esco
##alcaldesa
TIR
ream
##fabr
ack
##dictador
reto
enerys
##Loz
##Comisión
##veni
diales
puestos
👇👇
##ida
##plantilla
##psi
Cal
dicar
##impar
##dirigentes
##Chávez
##republ
##manifes
##Claramente
##temo
##Tui
creo
boles
##people
BuenosD
##personalmente
##CC
##Mmmmm
AMENTE
##desaparecer
##secuestra
##Isa
##oficiales
##falsas
##usuario
##(+
##Hal
##teatro
ariamente
##mg
##cancion
Ent
##comi
ICOS
irro
CAS
##cientos
##lanza
ité
##24/7
##Não
##ESPER
/20
##rap
ISTAS
ision
##pira
##likes
##pendejadas
##hablen
##📢
HU
##modos
##revel
##Hablando
##cone
😋😋
##nación
##entrado
AD
##Mónica
rimi
##comí
orio
##aporte
##votando
##NUEVO
##imaginan
##Amazon
##pérdida
reas
4,
##decirles
demia
tac
##👊
##cule
##deli
28
VIDEO
rill
Así
##aler
##bajas
AAAAAA
ade
##alm
##telef
tencias
##interc
##filtro
##Descan
ways
##tontería
##TAMBI
verdad
##región
jun
##tqm
aby
##Pueden
##CÓ
sel
##gue
drías
##leerlo
##quiénes
##animo
##Hum
##SUPER
##més
maron
##piense
guita
rilla
##marcar
dien
##Vete
##héroe
metros
##veras
##desbloque
##00
##colabora
##borre
##aprendido
##Love
FotoDe
##ciertos
ilas
##matando
Video
táis
##desac
##ocho
##Lima
NN
grá
##monstru
##plataforma
##episodios
##Fra
##FM
##FOR
##Hernández
##posibilidades
##Medio
##pierdas
Day
##encab
trib
udas
acas
##diputada
##coco
uli
##manifestación
##exi
##califica
##MON
##Vera
##patio
##límites
##busque
JAAJ
##oír
##Torres
eño
##golpes
eador
##propaganda
##Paso
##Sta
##impac
##cositas
##chiquita
##creado
##Demo
##perió
##free
Paz
orados
##expecta
##Equi
dula
##excel
##Guaido
##Erre
##entendió
##Ahi
gador
##⏩
##Bale
Radio
kf
BAR
##sede
tadora
##4,
##bancar
##55
##eva
pare
##suelen
##TANTO
FotoDePerfil
JER
##públicas
vame
ARIO
##TODAS
##líneas
##recupera
temp
##pieza
##ger
##china
jete
DORES
##contesto
##lon
##hablemos
##frec
##restaurante
##pio
##juventud
##sob
##cruz
##Nel
##pendientes
##gritos
##agradable
##Luna
FER
guém
cismo
##MUNDO
nab
##MIRA
xt
##cute
##38
Ustedes
ulan
##amig
##vecina
##Empiezo
##only
##dándole
/06
##Marcos
##gafas
He
##exige
##negociación
une
##clan
##útil
##supo
fornia
##Tambien
##institución
##90%
##black
##enterar
ÍS
##friend
##Sip
##pack
etti
##apoyan
ronto
##sufre
##tomé
##trabajador
##interactu
##hea
##obligación
##Ando
##musica
##prefieren
##fazer
##soñar
ñada
##reempla
ICE
##Guerra
##chiquito
tte
##propias
tidas
jarse
##Porqué
##amarillo
tré
abin
gy
##contenta
##daban
##Tremendo
##espacios
##dipl
##instru
##equivoco
##Nie
##ajeno
##arena
##TAMBIÉN
##Perfecto
grama
##desperdi
##Nadal
MENTO
##Demasiado
##rever
##hacéis
##Rt
##chama
##documento
##perdieron
##ahr
##visual
-)
##neoliber
##dolió
cast
##JAJAJAJAJAJAJ
##lidera
##audiencia
##policia
##sobretodo
##tour
Estás
##Quieren
##descubr
##obtener
##pró
##quej
##TÚ
##Indi
##morra
##Patria
##exac
##Reyes
##alturas
##escenas
💋💋
##Abs
##Top
##Jaime
DS
##sand
##mogol
##maduro
##mandado
##tene
##Aten
##podria
:3
##Dol
##subes
##observa
##Ayuntamiento
xel
ándalo
##Ky
ácter
##listas
##directa
##dibujar
##pilas
eña
minos
##mueren
ñón
ductor
???????
##revi
##Fiscalía
##Cl
##Viendo
##podré
##JUE
##coches
gate
##buscas
ingü
##techo
##Málaga
##pensamos
##🤗🤗
##espi
##conocerte
##ola
uele
##urge
##conjunto
##Educación
##xddd
##ora
Pregun
##pose
##revista
##Jeje
##tratamiento
##impe
nis
##after
##cop
##Hijo
##mamada
##limpio
BOL
##árbol
##seg
##faltas
##Expl
##ESCU
##solucion
##haci
iiiii
##plus
##blin
##Víc
##😨
riam
##ESTAS
##secundaria
##entendi
##Sara
##Menudo
##ayude
##pir
iadas
##tho
mbra
##Dir
Segui
##messi
##pisto
##pudieron
mex
##chinos
##prioridad
##diosa
turar
##Arturo
##ignorantes
##aprendí
'.
##doña
##juegue
##cuáles
##ASI
##Aja
##sabido
##miente
##MER
##adqui
MBRE
##metan
##deportivo
trá
##Bom
##EXP
Cual
##reí
tenme
##hero
##uy
alía
##nace
##alcanzar
##INTER
##Hit
##solicitud
##ño
##Apenas
##sucio
tron
##LGTBI
##ARISTEMO
😳😳
##Vá
##pesada
##petición
##entendiste
##GEN
Será
##cifras
##really
duce
##sie
ears
##estupideces
##Azul
##SEGUI
##tragedia
##qual
##RI
bada
##requis
Estoy
##invitas
maras
##prefiere
##enteré
##jodiendo
##odian
##💓
##ray
##Quienes
##impuesto
zgo
##💕💕
Gala
às
##vote
##eterno
##extraord
##agradece
##tron
##Din
##desh
ai
##Inte
##baila
##geno
##harto
##contemp
##Rica
##territorio
ganos
orld
##Dile
##global
mela
cruz
##Deje
##Vamo
vistas
##responsables
##garganta
##vien
##Respon
##miras
##€
Men
##ava
##BAN
##hueva
##sorprender
##stickers
##Quería
##vendiendo
##sam
##fur
tuoso
##elo
//
uidos
##molesto
fie
##Paraguay
orita
##wacho
##federal
CRE
dés
##eventos
##incluye
##paciente
últi
##fus
##34
##exitos
##máxima
##defiendo
##podían
ids
##lis
##Deberían
itat
##enfa
muy
##vestir
##ic
##CUENTA
##vuelvan
##comprender
##PUES
##fantasma
-.
tándose
##respondió
##tomamos
chero
##Roma
##Robert
letas
##tóxica
vias
##manejo
##perspec
igual
##quema
##equivocas
##aranceles
##marzo
ilos
Miercoles
##BOL
##asistir
##criticando
tuna
##QUIER
##(1
SJ
##encantas
##bicho
##enfermos
##TR
##enví
##efectos
##deca
izados
##VIVO
ayan
##terra
Estamos
##nazis
onga
##camión
##sensi
peta
##comprobar
uc
##sabían
Top
##baje
##👀👀
##paguen
##viejas
##Monterrey
##empatía
💦💦
##ecua
##sombra
lador
##terapia
##Sui
##activo
##entorno
uicios
##box
##llevaron
##rápi
##gestion
##Ponte
##tenis
🤗🤗
##maldad
##FAR
dm
##🇨🇴
mbol
##tudo
##mochila
##acompaña
##Coincido
NCT
tona
##muchísimas
##Vé
##fing
##firmas
##ronda
DH
##sientas
##Selena
##aceite
##**
##registra
##sha
##dispuesto
juegos
##fraude
##Literalmente
OOOOOO
##오늘
##bangtan
##Atención
##juan
##pelirro
##Ninguna
##credi
MAL
##ayy
##comento
##pasaría
tines
##capitulo
##Gonz
##Amar
##dema
##jajs
así
Team
65
##maric
##mérito
##seguís
##Agrade
deros
##GUA
##Banco
##aja
##Tío
##unidos
##ESP
##significado
##sucia
##racismo
##receta
anking
##nde
##regala
##Saben
##casta
##chic
##intenso
alición
##tenho
chet
##Mich
##constitución
##Lucía
##ofende
##acento
cr
##páginas
##imponer
##pensamientos
Mun
redo
fun
##haberlo
##concreto
##contado
als
##cn
##enseña
bueno
##than
##ducha
##set
pete
##cumplo
##Marvel
##ciudadanía
##marcas
##cebol
##décadas
##obligar
##anunciar
##Maes
##joya
##conversaciones
##contó
##brindar
##gobierna
##IGUAL
##términos
fó
##carácter
##Of
íso
##patada
##tesis
##fueras
##Imagínate
ladas
##piñas
##Muchísimas
GUA
##😋😋
##deix
##mom
##bases
##cicl
##dela
##our
##Estuve
##Bua
##Lunes
##stal
##😱😱😱
##indí
##Chale
##Js
##comunica
IDO
ronos
##encu
##dejarlo
##Hen
##podríamos
gri
##mediante
##Hora
##cabal
oña
##GI
##war
##mandaron
ilita
##dormí
##culito
hd
##''
##And
##posibles
/6
ind
##dulces
##bem
jalo
##MISMO
##gastos
RUP
##digital
##tempera
##potencia
elia
##intensa
Mon
##detes
##principales
Mac
##tatuaje
##quero
CER
##Estaría
##WTF
##dejaba
##agresión
##dire
##odiar
##NECESITO
##buenísimo
##gritando
##cál
mebol
##Amén
##circuns
##quito
##197
##Was
##never
##entrando
##fichajes
##ridícula
##reporta
##abrió
lanos
TROS
##chilenos
##conserva
##enfrentar
##fantás
izarro
😘😘😘😘
##candidatura
##domingos
bano
##íbamos
##tamb
##influencer
-3
##bebes
##rechazo
##leyenda
##latino
##traicion
##mito
##Derecho
##interno
##UP
##renunciar
istente
##lanzar
##desperté
##limón
##polvo
##DIA
oral
##cable
##vuestras
##Play
gantes
uría
##pertenece
##trajo
##Venezol
metro
##ces
##uruguay
##sis
##quite
mé
##Jungkook
##elementos
##Londres
##conductor
##corriente
##mamar
##contribu
##chucha
##HBO
##homosexuales
##medicamentos
##cercan
##Tru
##call
##arrancar
##Vin
##confirmado
##nazi
##ileg
##secretario
IDAD
##prohibido
##🤮
##Comple
##dad
##És
ARMY
amas
##Poder
##bicicle
##coge
ínica
##soporto
Chile
ÍSI
##porcentaje
##montar
##quitado
##CUMP
##+1
##SEA
##concep
##Tía
##notar
SUPER
##colocar
JK
trales
##retira
##adoctr
##acompañar
##PELO
##estó
Fern
##neuronas
##Peru
##pedirle
##comprando
##sonriendo
urar
denas
##Calle
##tranquilidad
##male
##limpieza
##carn
ERTO
##📍
##Sisi
##Bolsonaro
UTISTA
##harías
##feos
rlos
##decime
##contradic
##festival
ap
arn
##감
Sus
iendas
##entrenamiento
##Vivo
##revolución
##JUS
rista
##Chan
##big
##esq
##rueda
##falda
ross
ENTO
tógra
##DD
##Segundo
##peleando
##división
quera
##enojada
##asiento
##shippe
FOR
##Có
##venezolana
##PUTO
##😻
glaterra
##block
##extrañas
##kirchnerismo
##subí
##trago
##enemigos
##Camp
##Vargas
mbe
##Yu
##Rich
##cagan
##pillado
##iniciar
##criminales
##inscri
##respirar
##home
##Impres
##aspecto
##📸
##excusas
##vari
##redac
##Trabajo
7,
##colegas
##puras
##Caracas
##inex
rom
##cuántas
##comisión
##terroristas
##consumi
soy
##2013
LS
##Day
##atrac
##suger
##renta
##llueve
bita
deja
##mandas
##ministra
Les
##consta
##explicaciones
##veamos
##🤫
tifi
##xdddd
##injusto
##USTE
dalajara
##presentó
##pegado
##👇👇
Domingo
##inconven
##emociones
##llamadas
LN
##Nop
##🇵🇪
##Conozco
:((
##caos
##Good
##exterior
##Period
##insoportable
bby
##Semana
##Cepeda
##Alcalde
##encer
##sufriendo
##Papa
##Dif
##habrán
##ponerte
##intol
vivientes
rant
💜💜💜💜
##equivoca
##chingada
##fomen
##intri
##requiere
##IS
##tardar
##encontraba
##Portugal
##Mí
manes
##ysi
FICIAL
##Haber
BAUTISTA
##youtuber
##2021
zadas
##quando
##soltera
##prepa
##chula
lid
5,
mur
##Cou
##escándalo
##life
ófo
With
##mimos
##internacionales
dum
vencia
##POL
##bloqueó
##Tranquila
##Pepe
##sumo
##hal
ament
##Nombre
sim
##gir
##Contin
##ESTU
##toduser
andra
##disim
##condi
##aseguró
##Prob
##esperemos
dedores
##Yoongi
##nao
##bajó
##Aaaaa
##ayudas
any
##Monte
##-¿
ífica
##anillo
...!
##prácticas
##impacto
##rubio
##🌸
##tel
##VUEL
##Fun
##encen
##Herrera
##ciru
SORTEO
##piro
##agrada
##forro
##Ningún
##YOU
cionista
##VOL
##plis
##salto
ees
##canto
##Us
paño
Elecciones
gale
##levante
##gala
tengo
##netflix
##fet
##contun
##comprensión
##merda
##Internacional
##cm
##Cuen
##sill
##Instituto
##carreras
##maquillaje
##mim
vales
een
##lamento
WW
##década
##WA
quísi
##seguiré
##dibujos
##neu
##escapar
어요
##cuén
##conciertos
ason
queda
##Lorenzo
##movimientos
##proto
the
##exacto
MTVLAPAREJAJ
##Cari
##reserva
##think
##perdono
##Chicos
##taxi
##miseria
##God
MÁS
##vernos
##cejas
##reen
##acorde
##veter
##è
##Suena
##definir
leti
##SEN
##copio
##pokemon
##vibra
##avisa
gración
sí
sey
29
##xdxd
##👇🏻
ritas
ERN
##volar
##1:
jajajajajaj
##pill
##sentirme
##again
venidos
kota
##ortografía
hah
##domici
##mastur
##quedará
##acuerdas
##Oiga
##wan
##hiper
##siguientes
##Decir
MTVLAKPO
##espíritu
##municipal
##salame
##municipio
##responden
##tenerlo
##corazones
##CASA
##himno
##Rol
##echado
##ا
##patético
##stor
##serios
##votó
##Valls
thing
##persegui
cao
##cheque
##Af
##Mora
mira
cipl
##empiece
##Disfruta
##competir
##Hablo
##reclamo
##cruzar
##playlist
##Nintendo
##representantes
##hielo
##enti
##there
##necesaria
##Nacho
##thread
##financi
##ausencia
##embarazo
##etiqueta
##ironía
##HERMOSO
##contaminación
ichael
##Lig
##cumplido
##VAN
tián
##lío
usula
##Interesante
##Literal
##básico
##averi
##andamos
##Israel
##formal
##cámaras
##vendo
##Lamento
INSTA
edo
denme
##enfrente
##blancos
##Kim
##SII
##merecido
##jurí
##experto
rantes
Entonces
##farma
##💫
anadas
##🎥
Siempre
Sk
##paral
remo
##Alto
##avisar
##manifi
##med
##compu
##actividades
##Nue
##Imposible
##Pensaba
quinas
##desea
##detenido
##castigo
##caray
quien
##expresar
ific
##Non
##bts
##Sábado
##hashtag
##corrupta
##chich
##aproxima
##colmo
##curro
mentación
cola
##hipócrita
##estes
##Quiere
##politica
##NY
##barbaridad
##Big
américa
back
grada
guió
##fruta
Tw
##escribes
##otaku
tarnos
Hon
##Queda
##tumba
llermo
##pelicula
##chir
dáis
##dirá
ivamente
##dirán
##gratui
##aburro
LOR
##Shi
##inaugu
##Oscar
##misión
##camisetas
TON
ENCIA
grante
##protagonista
##sabías
##pasaste
nidad
##PN
##carretera
##ultraderecha
##Wtf
##Mirá
luye
##luchando
##avance
##muertes
mejor
##been
##PRECI
##excep
##relo
lá
##asumir
##pierda
sy
tha
##linea
👏👏👏
cilia
##sobreval
33
##papeles
##terreno
frica
##Uf
##🙋🏻
##raya
##POS
ónimo
##:(((
##ocupada
##increible
##jsjs
##face
##combate
##envidi
##cancelar
file
dísimo
xx
##Leí
##HIS
##Omg
cht
##aval
##cansan
##고
##preparar
##NUES
##DECIR
##Dejar
##make
##febrero
##Paco
##Rosario
##nefasto
##profesión
##indicar
##agora
##colonia
ENE
##Posta
##besar
##—¿
##cambiando
##condenado
##Palacio
##Acu
##miel
##mandato
##FIFA
##ética
##Supremo
##Camila
##mandé
8,
##Bajo
##Enserio
##Via
?”
tesis
##dinámica
##Libertad
##dais
uiz
>>>>
##Cin
win
##bolsas
##😂😂😂😂😂😂😂
##desco
##entienda
##padr
##Mujer
hasta
##ao
##empo
OOK
##demonio
##espectáculo
##brasil
Nadie
##preocupación
##MAÑ
##sonreír
##miran
gulo
##🙈🙈
##fif
##enano
brio
##merecemos
##perdiste
##cayendo
traron
##Lopez
##concur
##reaccion
##Victoria
👍🏻
##HDP
##pierdes
clam
reak
rrrrr
##Cana
##déjame
##FC
##😢😢
##boludeces
##próximos
ésar
##ridiculo
##Sabe
##habitual
JAJAJAJAJAJ
##SORTEO
##Dark
##sufrimiento
mith
ciana
paso
tísimo
citas
Fin
/2019
##motor
##reducir
##Nay
##trabajado
##PLA
##first
##tendrían
##💀
/05
cro
vares
##Rock
##Daenerys
berg
##Tigre
##despedida
##aveces
##Vice
##cercano
enme
##Tel
##Andrea
jis
##presa
##voces
##fíjate
##2010
quisi
##feas
##chairos
##Arran
abeches
##milagro
tese
##why
##divina
##nun
##nombrar
quitec
##Súper
sj
GUIEN
izamos
##Hostia
##congresista
##mascota
dellín
##Natalia
##amigu
##encontró
##muchacha
##Ministerio
##sucedido
##otr
.”
##cojo
ALO
##ofrec
##Bienvenida
##enseño
##nacimiento
##PREGUN
##Lástima
##volvemos
rion
##pondría
pto
##Agui
##EXTRA
pers
zamiento
respe
fonos
adores
##delincuencia
##fie
##tambi
##story
##decidí
##Alv
##entras
##chal
tric
##mínima
erada
##contraria
##sobres
##tóxico
##💅
##enviado
##sincero
##respec
##ku
##amplia
##árboles
tables
##amistades
##miss
##facili
##Corre
##viral
##embaja
olla
IOR
##pida
##chabon
##California
##Naa
##Tenés
keting
##uniforme
##😚
##2012
##patro
##subven
##tenias
##estúpi
##paises
RAR
##mamadas
##marihuana
ames
ciencia
iaw
cientes
##éxitos
##preocupado
##would
##Í
6,
YE
GT
kkkkkkkk
##💘
”:
ddin
iela
##FAN
##Adiós
##realiza
##]
##brasile
fis
##transfor
DRE
##gü
than
##rodilla
lardo
éndole
##Ninguno
##📣
nio
ctur
##King
##Mire
##🤙
##dirigir
##Partici
##enojo
##Seguridad
VAR
gidos
##deseando
##angus
##mamen
##Menuda
##escra
bí
Cara
##form
abra
##lata
##🍑
##Vergüenza
##Temp
##Xd
##jaa
##relato
##barata
##secta
giendo
dada
##televis
##bullying
##normales
jeres
##tiros
FOX
mart
##Jin
##locas
jillo
xe
##estómago
##prostitu
##Maxi
##chavales
##:'(
##Terrible
Brasil
iedad
🤣😂🤣😂
##comprarme
##Video
##enojar
ISTO
hhhhh
##felicitaciones
##BEB
pé
##promoción
##dicha
##Víctor
##ODIO
##nave
##acuerda
##estreno
##matemáticas
##mone
##mascotas
##Fla
##viaja
gencias
##niñ
ición
##Tim
##siguió
##suelta
##antoja
##BASTA
##participa
##IMPOR
uidad
##muro
##invertir
Cuba
##machismo
##ocurra
##Consi
##preparada
##inmigrantes
##conquis
##emergencia
Vo
##mide
MTVLAINSTA
uerta
##:')
##centros
##salvador
##DIREC
##selectividad
##defensor
cuál
##consecuencia
toma
##recien
##acompaño
##registro
UD
##Mr
ribles
##Serra
##radicales
##marica
##echando
##exter
##ríe
##😉😉
Am
gma
##seguidor
Quiero
##guita
Beso
##정
##encontramos
##👍🏻
##things
##chayo
BAS
dones
##pavo
##complica
JULIANTINA
xy
essi
##Colo
##filosofía
##Cri
👏🏽
##Alan
##🇨🇱
##brillante
minis
iosa
##soldados
##poe
torn
zu
##moneda
##normas
##retraso
##menciona
##éramos
🙏🙏
##escoger
##tuviste
##OTRA
##eje
##ira
##🇻🇪
##Busca
LEY
##muchisimo
##VAL
##CHI
##desor
##cancer
##📻
##Hacienda
200
tudes
##verdades
##cc
##Resulta
##80%
##paran
##clá
##habr
##5,
##👌🏻
teos
uncia
##Tí
##MIL
##distinta
eos
##kpop
Real
radas
entar
##esqui
##plas
JULIANTINAFANS
##Sea
##nas
##anunció
##famosos
eri
##seman
##NBA
##Hice
##Unión
ÍO
##Cele
##sofá
dista
Lopez
##jajajajja
TRAS
##Munici
##ganaste
##funcionar
##Nose
Vida
gase
siempre
MS
ECE
minar
##Despues
##pensiones
VIR
ata
##yes
dras
##FOTO
##oiga
##miró
##down
##Siendo
##League
##Capaz
##departamento
##antiguo
##ilusion
##Ku
Pues
##fenó
TIN
tors
##Castro
##Llega
ientas
eck
##SOL
##coherente
##Enten
##aprox
##ocupar
##Lava
##sufrido
JAJAJAJAJAJAJA
##Spotify
##indirecta
##humildad
##experiencias
##Besos
##TT
##bancos
Cen
##Let
##😆😆
##37
##raja
##pesadilla
##rojos
##pute
zcan
##aficionados
##HOLA
##rapido
##Tro
##gent
IE
##pequeñas
énez
##nes
##leemos
##perspectiva
##tanga
##vendido
##apunta
##contratos
##Edi
##DC
##amistos
jeras
##exista
##Pdte
##tíos
##renovar
##inventar
##❣
##gallina
##vigil
##Honduras
##instante
rimos
##cagado
##metieron
##premios
quie
##mazo
##cómodo
##boli
##siiii
##trán
sores
##chill
##fallar
Voto
##directiva
''
##rein
Nacional
##ecuatori
##spoilers
##bots
ass
##mero
##recomendación
uis
##efectivo
##predictivo
Maca
##tierna
##excepción
##lac
##cintura
##mirá
hí
🇪🇨
##😳😳
##facebook
ecía
##Abas
🤪🤪
##Verga
##prepo
##tipa
##saqué
##🤡
inga
##porte
##donaciones
##Zaragoza
##bombón
##potencial
##creemos
##divertida
##Clas
##vuelvas
MON
##estupido
##Tweet
##merca
##equili
##Hermano
##😂🤣
##Ola
USI
##Mba
##🔝
##FELICI
##lmao
##hablé
Ter
debre
##Debo
sita
##2:
##Econ
##influencia
##representación
lis
##Youtube
##dispara
##horno
gana
##videojuegos
##creación
kele
##Hitler
##cabrones
##OL
##perre
##fb
##,,
##funcionan
##remedio
##aventura
##Inglaterra
dros
##César
##daré
Solo
##tocan
##demócra
##estupida
##chavismo
##ejemplos
Min
COR
hoy
##digna
rrrr
##matado
##polici
##vergas
##homófo
##oral
##inflación
##investidura
##Fil
ient
##acco
##detener
##engor
##Gue
Cha
ene
##acadé
##Noroña
##carnet
liga
##800
##Ota
##contratar
PRE
##instituto
##pecado
Cuándo
##tratado
##tuitear
##alba
##entere
imamente
##🤣🤣🤣🤣🤣🤣
##😶
😆😆
##Morales
##Jajaa
##regalos
##Peter
##barrios
##fuga
##Dom
##suicidio
Hasta
##Ramón
##dijera
##artic
##ceja
##hot
##today
##referente
##9,
##pp
espera
##meterme
##empresario
##pillo
uelen
##bloquea
##pás
##Cualquiera
##🇺🇸
mpli
##sueldos
##acel
##adorable
##vam
##inferior
íf
##mean
##Civil
##rapi
##traes
días
##oficialmente
##asesor
dian
##obsesión
##ENCAN
##normalmente
👌🏻
##39
##Guillermo
##confío
##volvi
##UNI
##Profes
##publicado
andal
abamos
##Santo
##fina
##sobrino
😊😊
##plantas
##Mad
##refres
gona
##invitan
##algu
##Nicaragua
##Come
##horarios
##estemos
##bajando
##seguidos
##celu
##bn
##incu
##aconse
##Bl
##coalición
ladolid
##Granada
##✊
##bai
##bendición
.?
##Avis
##EMILIO
##bomb
##pale
trico
##ESTAR
##sugi
##Jen
##Arrimadas
##conquistado
##maestros
BLO
##medal
##rem
##Navarra
##prej
SVGala
clo
##clos
Ranking
##locales
##convencido
##fijado
##pregunte
##generales
##pensó
##noviembre
##cringe
Dis
##expertos
##lleven
##beneficios
##acercó
##pijama
rene
##raras
inha
##😯
##crece
##robando
eok
tuza
rimir
##porro
##audi
##pides
##tarado
##arranca
💙💙
##flipa
jk
##dañ
##Latino
##convocatoria
##PASO
##Vélez
ISA
cerveza
##Bella
##tabla
##Aguante
##certif
DL
...)
##ALGUIEN
##practic
##habiendo
##Like
##alarma
VES
##PES
##fucking
xil
##mmmm
ICONO
##MAÑANA
EEEEEEEE
gá
##Imagino
BS
##Radio
Mundial
🤭🤭
##carca
##confirmo
##:((((
##amarilla
ísta
##ave
##quitaron
jeron
eth
##alli
##oración
##TRABA
##sentimos
##misa
##mataron
##quejarse
##Medel
##legí
##mamita
##trabajas
TORIA
##sabés
##fortale
##invento
Reino
##voso
##provocar
##talentos
##CÓMO
##Tony
onto
España
##eli
##culero
##pop
##bajón
war
##creéis
##defra
##cariños
ologia
##caña
##mija
pora
##caza
##lun
##lesbiana
##individual
od
##recompen
##Fernandez
##inmediato
##🙏🙏
##vide
##colección
##almo
##aportar
##👑
##vago
##Puro
##maltrato
##seca
##Thank
MTVLAICONO
##artes
##blanque
##Jajajajajajaj
##expor
fab
##Hel
olazo
##recorrido
MacaBeso
##izquierdo
##credibilidad
##gatito
##Existe
##Pau
##psico
##Desa
##tiró
##ataca
óloga
rupción
sexual
##aconte
PremiosMTVMiaw
##gringos
##considerar
publ
##seco
##hoje
##Pronto
brado
BAN
Mal
##comparte
queras
##suficientes
##pasear
istema
!"
##🤪🤪
##també
##dólar
##grita
quetas
rre
##pacientes
##admitir
##podia
randa
##Ambos
##pse
##presentado
##gusten
##explicas
redi
##quinta
##Comien
##Pat
diera
##díganme
##mc
##pade
bao
##trol
##descansa
LTIMO
##LGBT
enial
##🐶
##4-
##laburar
##escriben
tría
##Lana
zana
mería
##Floren
##esfor
##🦁
imal
LU
MANA
##Correa
icol
##creó
##mañanas
##감사
##método
filia
:)
##abogados
##jj
##uf
##Stark
##traición
##int
##Castilla
##Fuck
##entrena
##tortilla
##2011
##Vuelve
##cartera
##mostrando
##CUL
##Ang
##enfada
##envíanos
andante
##tensión
##difíciles
ínci
##leen
##prohibir
##Reina
icorn
##biblioteca
##12.
wo
##alcance
?¿
##😹
hington
##panza
##conexión
UESTA
##DÍAS
##intern
##valga
Sevilla
##Mierda
##miraba
##Bay
##Roc
Puede
##siglos
##Sebastián
##añadir
##retui
##comportamiento
##sentada
##Pás
##harían
##bisexual
##negociaciones
##Últimamente
##volumen
##protec
##Pregunto
kos
##peruanos
##sucedió
##apara
GameO
##?????
##ste
##pidieron
##duela
##ingreso
🙈🙈
##oreja
meida
##reciente
##echan
##manden
##CORRUP
XICO
ster
##ape
##Mano
##tigre
👍👍
##neoliberal
##acci
##artículos
##pajar
##comenten
Fa
##Dije
##Cristo
##regresa
##venís
##Vía
##besito
##llave
##especiales
##Ministra
##cogido
cual
##😱😱😱😱
jf
##Popular
##cerrada
##taza
ever
##mae
##litera
##loo
##Tes
mber
##pánico
##orejas
##ficción
##débil
##próximas
##democrático
mpa
##dismin
##arregla
##señala
rame
##maria
##acho
litas
##Uffff
##invas
##Guadalajara
##CLAR
##ctm
its
##recomiendan
05
crí
TIDO
##coch
TADO
##🙁
##divor
##reciben
##ciega
irse
##mood
##periodo
##cervez
##disting
##imaginación
##disgus
##UNO
##rebo
onarios
##chavista
Sor
Cuántos
##objetivos
oman
에이
##Dam
##━
vale
##MUJER
##jardín
##Noooooo
##pava
##lloré
##But
##Estima
##alimentos
##nucle
##Absolu
##chanta
onados
##💖💖
##right
##Gana
##diagn
##onde
##salta
WE
tta
##trailer
👇🏻
##0.
##win
##ainda
##funcionario
##truco
##Ign
##Bolivia
##humilla
orca
##quedaría
##Aque
##peleas
##44
##enci
calo
##jajsjs
##shock
Pi
Cuánto
##Jordi
Tiene
tuario
##sectores
dgame
##definitiva
##intensidad
##way
##histórica
##Coutinho
##meti
##Rioja
##Dentro
JAS
##📹
##Ever
ecemos
pendo
##sección
bitos
vana
AAAAAAAAAAAAAAAA
##Miami
##fritas
lian
##imi
##retw
##Pueblo
less
##See
##world
##catalana
##11.
##esconder
asi
##wpp
##lleg
##termo
Muchas
cresía
##aquellas
##pd
##🙄🙄🙄
yecto
##army
##adolescente
ciable
💗💗
##recibo
##heterosexual
##melhor
##pagina
##우
##sed
##rique
##Santi
##réc
##sonro
tosa
##Bastante
##espada
Skabeches
joon
istros
##Sigan
##Pam
##ponerlo
##tranquil
##envía
##quere
##graduación
##campañ
##tristes
lloso
##Manda
PC
##Castillo
##ARGEN
##Encon
##descuento
bró
##Hubo
##Dakota
##tenerte
low
##CREO
##tire
##notificaciones
##account
##ari
##solito
##shor
##hrs
dazo
##compró
anu
bala
come
##Ligt
##avanzar
ZAR
inada
lera
##París
##tragar
##anteriormente
plan
resa
##Envi
teridad
JSJ
##recuperación
##music
##trono
##aprecio
##toro
##colaboración
##dl
##facu
##viví
##verá
##Lic
cianos
##vivos
##piedras
##😎😎
##comprendo
##funciones
##lleguen
##HIJO
##bich
##amane
##Up
##Días
##Patricia
##sincera
##news
ueba
##aumentar
geno
##destr
##terrorista
dul
Últi
Tienes
##juntamos
mill
##portu
##Precisamente
##hai
##fanatismo
##perpe
##tomen
##MENOS
##hermanas
##Repito
##dedicado
##leíste
##persecu
##manual
##satisfac
##abraza
##Veni
##eco
##REG
##porra
##puros
##asistencia
-;
##tigres
eer
##Villar
óstico
##existía
##negó
##friends
##jodan
gt
##Jueves
##fotografía
ak
JAJS
##adulto
##batería
##😟
gaet
eramente
gúntale
##demor
##paisa
##Mariano
oledo
##incapaz
##fiebre
##Cra
##⬇
##lucas
##vesti
estruc
##tribu
##pasara
##acordaba
##avatar
##Lastima
##once
uniden
Has
Mexico
##valió
##residen
##karma
##guapos
##Director
##arrepiento
oh
##Parte
##Also
##bastantes
ético
##milan
##73
##votación
##institucional
##hacerla
uerza
##note
##tuvieran
##jimin
QUÉ
intió
##invitados
aan
##presidentes
sela
##Libertadores
madre
##ox
allenge
lán
##Team
##conocida
너무
##🙏🏼
##pho
nabelle
éndolo
##EH
##Ahorita
UELA
😢😢
Sol
tander
golden
##Há
##almuerzo
itó
##Mol
##HILO
##demasiada
gancia
##despedir
##Domin
##cerdo
##liberales
IDENTE
##Galicia
##Empieza
##esencia
##muestran
##Cámara
##quis
##eléctrica
##seleccion
##amante
##Ajá
##reclamar
##them
##Arriba
##preguntarle
##jura
##sindica
##logros
##queridos
ele
##enchu
##antojo
##lei
Don
try
girl
##emba
##lección
arez
##veis
##macri
##Abascal
##dirás
ombo
##Sera
##Jajajajaa
##Río
##mentalidad
von
##Jal
Mil
##Art
##reuniones
##Pac
##Chil
##tocando
riors
##ais
##narices
##DICE
##test
##temblor
##AMIG
##Cádiz
##garan
##hamburguesa
estoy
Mejor
##galletas
##hijueputa
CUER
##alegrar
##canales
##jodida
izas
##GUSTA
##pegue
##Tierra
UUUU
##Medi
cico
Desde
##;;
##Pino
##mentales
##supermer
##mona
##gustando
Tour
##City
##pate
##rápida
##uu
##Errejón
bús
##seriamente
ceta
##profunda
NS
mín
##basa
##infarto
##:"
##Marco
##reivin
##DEN
##ayuntamiento
##cuanta
##calvo
##olviden
##Independiente
##Cuanta
##Comer
##jajajajajajaj
hite
traje
##plantel
lite
##madrileños
##Estan
##novedad
##Seria
cau
##colon
##darnos
##honesto
ñarol
##2019,
###4
##monu
##Wh
##Vengo
##narcotra
##IMA
quila
Mor
taré
##Vicente
##fortuna
dete
##Ahhhh
##obe
##cana
##Kevin
##Spain
##verda
##nombra
zarse
##Woo
omitas
cervezagolden
inta
tivar
##Punto
##mera
##modelos
합니다
##flu
##unión
##PANDORA
Her
##nací
##Algunas
##OFICIAL
##AJ
##ventas
##taba
##aceptan
##vendría
##🙌🏼
liam
Noticias
ecra
##pusi
##soberbia
##mecan
zquez
##falo
##sacaste
kw
cies
##Tas
##43
##Espert
Podemos
##Siiiii
##pued
##convic
##boludos
##talla
##aix
##AHRE
##mijo
kaka
##pedos
##cb
##lobo
tere
##GRI
MiReino
##porqu
##jalo
##Senador
##merecía
##dobla
##cír
##mutu
señ
écdo
##llenos
##né
poli
##interesantes
##🍻
##bajado
##FARC
##fé
velas
##visitas
##dá
trans
##Premi
##alfa
##llegaba
##llore
##CER
##montaña
##cervezas
##recar
##hard
gico
##......
##perrita
pectos
##Michael
##haremos
##incluido
##aí
##barri
##0,
##tot
uti
##cala
##hala
##pape
##river
tráfico
endoza
##acces
umiendo
##going
##platos
##Emi
##AG
##lxs
isos
##Dro
##haberme
##aprovecha
##orientación
pista
##mandando
##cerró
dical
CIONAL
onder
##leal
dentemente
##cambiaron
##únicamente
eles
erten
##Vis
nap
##(3
##Vam
omento
##ÚLTIMA
##volverá
##tradu
##🌟
##verle
##hí
##bandas
##Nación
##Bás
éctor
vitable
##demago
##Blanco
##😜😜
##leido
##Agradezco
##vicio
##aper
##impu
##Correcto
minado
##Comunicado
##impresentable
tades
##claras
##😒😒
alidad
##bloqueada
##nacionales
💪🏼
reros
oor
usias
OOOOOOO
##cuente
eada
##Bull
##meren
##vergonzoso
##Dio
##SEÑOR
##masac
dijo
baste
##suspender
##quejo
##Ronaldo
##보
##chulo
##patadas
##Ey
mpia
##torne
##aporta
##sirenita
fri
##tuiteros
##Atleti
##polar
##ocurren
##hueco
máticamente
colo
ENTES
##venganza
##queden
##busc
##marx
##arrepentir
sei
##Washington
##antigua
##dob
tentes
##explicado
##alien
##ater
##pensarlo
...!!!
##boleto
resti
##però
##😍❤
graf
ivas
##muc
##Omar
dka
##gabinete
Va
idane
##monte
##sanciones
ule
##búsqueda
zy
##testigo
75
##cali
##Hospital
##insin
##Sandra
##Ada
##Servi
##combus
##postre
##hela
##metí
##llamen
##homici
##comió
##nah
##quedaste
phone
##Rosalía
##constr
usly
cedentes
🙏🏼
##reconozco
##Allí
##vayamos
💔💔
...,
zla
##42
##compran
##bañ
##ligas
##Querido
##marcado
##dispu
##dedico
##populismo
ámicas
##cagas
##abandonar
##agr
##Lleva
##mail
##vera
##pintar
##primos
##infinito
##Apar
##alegre
##formato
IOS
##Mic
##bienestar
##Responde
##Insisto
##expresidente
##Mall
##elige
##Alexis
##Magn
jez
##porfi
##verificar
vern
##cober
##llores
##pich
##habitantes
www
##pour
##liqui
##estructura
##cacho
##aprobación
🇨🇴
##Eva
##Campeón
##transmisión
##tuite
terios
...¿
vinen
##exci
😏😏
##comis
________
##pienses
mosa
##Constitucional
##pegó
##let
##sentarse
##presta
##help
##Elec
##pasaje
##ofertas
##asesinado
##peje
##agente
LY
##tiras
##perci
##flash
##HT
##io
##responsabil
##Amer
##promesas
##BON
##técnicos
##eléctrico
##Holaa
enn
talla
##Porq
##ostia
##Bonito
##잘
##Arro
##tea
##responda
##destin
##saliste
##almor
##assim
##exceso
##vulgar
GameOfThrones
##efectivamente
9,
##anos
##estudiado
##Año
ciaron
##Pho
##soluciones
##celos
##porquería
guer
##zorra
##Hello
QUÍ
##Mul
##horribles
##Probablemente
##75
##apuesto
##OF
##justa
##Ole
##Fueron
sol
##difundir
erdo
##3)
##Paulo
##Jajajajja
jetas
##Esperando
##descubierto
##piloto
##positiva
##avisas
##JULIANTINA
##maravil
##esperanzas
##saltar
##realizado
##dosis
##ALE
pocas
quismo
ek
##empanadas
##apuestas
##previs
mentales
##bienvenido
##SÉ
##alas
JAARISTEMO
##aaa
##inmor
##expectativas
##conge
##profundamente
Enter
##lentamente
está
##rodillas
##Bildu
##repite
##controla
##uff
emplo
##ESPAÑA
##documentos
##veneno
##guitarra
jano
##bardo
Macri
##extin
##casita
##AMIGA
##evolución
##Nan
##Mesa
Honduras
##electri
##graba
##excepto
##cebolla
##construc
##masculino
##MIX
éstor
##explos
##piensen
공연
##Nooooo
##dedi
##이
etero
##buenísima
##Switch
##sonríe
##abuelos
##borracha
##privilegio
##MAY
ega
##desear
##revela
##seguimiento
##gobiern
Sex
##ell
##noble
##1.-
##cajas
##solas
Din
##suyos
glo
##fuma
ARON
guero
##Llego
##bosque
##rumores
##Wi
##prefieres
##vehículos
ive
Vivo
queros
aldas
##plazas
##AV
##continúa
##permiten
tés
##Eran
##Habría
##bachill
##ingresos
##particip
##gg
##Sabía
##guion
##haberse
yentes
##Corea
##Vente
##aprobado
darse
##🤞
##labio
##invitamos
lex
##sonar
##Hy
##agarro
##unfollow
diza
##GANA
##Medellín
##kar
##química
ples
##regalaron
##Alma
##Bah
##Anti
##enseñan
##:))
##Fíjate
##ocupado
##Cero
##vivía
trados
##podcast
##PSG
##Siiiiii
##japones
licos
##antro
##terminamos
TIC
donde
trema
##mostró
##mexico
##impide
##Cuar
##Donald
##soñé
##Kici
##Oficial
padas
##billete
##Loco
##bruja
##combo
laron
##fiscales
##discur
##vehículo
##Siguen
##financia
ND
##Porfa
##jamón
##250
##PIN
##weno
##incompe
ARISTEMOFANS
##marchas
##convirtió
ència
##Confi
##rumor
##bie
##Aven
tone
##llenas
##patrón
bico
##pastor
vere
mitas
##debut
##remon
##rendimiento
Ru
##increí
##sensual
mante
##last
##firmado
##inicial
##suceder
bosa
##👏🏻
:5
##Héctor
##Unidas
##lesión
tsu
##secues
erba
##Bloque
hop
turi
##circu
##vagina
##celebración
kan
##GOL
##claros
##sobran
##tarif
##patriar
##cláusula
##blog
disimo
##acompañado
##👎
##bár
##jajajajaa
##inno
##volante
🙌🏼
##caf
güenzas
##Beatriz
##ESTABA
ilable
##HERMOSA
##dude
##Junta
##combatir
##Chivas
##vidri
TANTE
##benefi
##sustitu
##Cru
##coloc
##cojer
##metal
timar
##enamora
##dimos
##toros
Boy
##kilo
##psicólogo
dmx
##Pay
icular
##diria
##Decime
uste
##Holanda
##violadores
undan
##imaginé
EA
##put
RID
##descripción
##Ham
##chale
##subsi
##Parlamento
##añitos
##fenómeno
omnio
##Apple
##Mauro
##cristi
##cuerpos
period
##extrañaba
debrecht
##vivienda
##47
##corn
ERNO
##BEL
##tolerancia
##echarle
oi
##mai
##irresponsable
##necesidades
##amlo
##·
##Igna
##Racing
##respetos
/4
##Bangtan
##supuesta
##sentar
..!!
jetivo
##fachas
##escuchan
##Zapa
##Gio
##maso
##empate
##verdaderos
##WEY
##arruin
##dr
##peligros
##fallas
##congresistas
##movida
##stalke
##tô
tex
ídate
##violador
##disposición
drome
##libertadores
volución
ÚN
##coincido
##KA
##tiendas
##vinieron
TT
##csm
##Maradona
##cín
##reloj
palmente
##industri
##madu
##usaba
##Sep
##stu
##regaló
##Ayuda
##cague
cifer
##Jovic
##molestia
##estarás
##aspectos
##flipando
##🥵
##tarada
##Parque
##cifra
##corregir
##1-0
rena
##decías
##deliciosa
##sobrina
##CAMBI
deci
íncipe
##muñeca
##mecán
##ESTAMOS
##culpables
Gol
LEYPO
isas
On
##ám
CALLEYPO
##10,
field
##condu
##pegan
##marchar
##Acos
##diera
##lecciones
demo
##musul
##muchísima
##verse
##Gloria
##incluir
##hilos
Tengo
##botel
##america
##entusias
##estadouniden
##ná
##hipocresía
remoto
##CS
miro
ying
##SEGU
##salvaje
***
;;
##guardo
##Estuvo
##escaleras
##Pilar
##pasaporte
##XXI
##Farc
##Are
🇵🇪
##suspensión
##cumpla
dador
##emocionada
##Pep
##sum
delo
##Baja
##octa
##despresti
##HAN
##Ademas
##narcos
Fu
##saluda
##PRESIDENTE
ede
##tendrías
##ESTÁN
##Smith
##medir
rías
##Aris
chón
##hueso
##acceder
pedia
##insulta
##Martes
TANDO
##promesa
##Gala
##Stranger
##actua
##아미
laska
##posiblemente
##CUAL
##juegas
VIO
##Respeto
##hech
VOS
##anar
##aw
##aprendiendo
BD
##Bs
##recibiendo
##Tronos
##정말
##ánimos
pic
##That
##Canal
ERTA
ongo
##How
##preocupante
##tick
amora
##botón
##Acaba
##DESDE
##héroes
##cumplió
##Tex
Cho
##SH
##fábr
##descom
##refuerzos
##pastillas
##adolescentes
##alf
##pequeñ
##maleta
##Mendoza
Pla
##Bonita
##levantó
##Eri
##Sofía
##pactos
##Miriam
##SK
##Apa
##ach
!...
##exigen
##apreciar
##anécdo
ombra
##continú
##💪🏼
##liger
##soportar
jajajaa
##creciendo
##name
tete
##hume
talgia
##turismo
##KE
##😁😁😁
##quisieron
orama
##51
hue
##nueve
##Mate
##duró
ANOS
##sra
##LLORAR
##entendía
##individuo
##Zel
##Suprema
##imbéciles
##favo
##goleador
##Agua
cí
gias
UNA
alia
##Colombi
##obligado
##oficio
##cristal
##enteras
##wacha
##tortu
##Canadá
##Chica
##mientas
##atentos
##explotar
##representan
uf
##Coca
##ingresar
cencia
##golpistas
##ENTRE
##👩
##night
uér
avi
cedes
##margen
##vocês
icio
##hec
##vcs
##urnas
Gar
##hermanito
##puerto
##nutri
##entrevistas
##resol
##yoongi
##conté
##tomarse
aylor
##resistencia
Buenas
ienden
garme
venta
##prohí
##ENTI
##invite
##tuyas
##noctur
##insi
##escuchaba
##até
.!
teza
##taller
##Valladolid
##casado
##PENDE
doni
##quitó
Bon
##MV
##publicó
##enojado
##Suiza
##tatuajes
##obten
##bigo
##bicicleta
##George
rimes
formes
##crítico
##generaciones
##japon
##empleado
##celosa
##Canarias
##espon
Vox
mero
##BES
##vegetar
fortunadamente
##cé
##soledad
##Fá
deme
##típica
##TEAM
##botas
Barbara
##discapa
##Néstor
##carril
##erra
LEA
##propie
##expe
HUMAN
##Lau
drían
##glor
##contamos
##cum
##tierras
##zar
##Crees
##Veracruz
##🤣🤣🤣🤣🤣🤣🤣🤣
##sobrevivir
##Casado
##ciudadana
##alemán
##multa
##Matías
##ambiental
$$
##pseudo
##guía
##nad
##impl
AAAAAAA
##pru
##Borja
Dios
##poronga
##reino
##compañeras
CDMX
##irte
##literatura
##posiciones
##Roger
##ojitos
##acostumbrado
##intenciones
##olla
ecutivo
##guerrill
IENDO
✌🏻
mail
##dudes
##fernet
##necesariamente
ENDI
uelta
eah
##debu
##ente
##Viene
pri
##TRAN
##preferido
##incul
##ahorro
##dies
##remi
##temperatura
nunca
##Hahahaha
##HAR
ETA
##leas
Annabelle
ecraft
##válido
##Ejército
##reggaet
##Ruiz
##sentidos
IAS
##cubrir
##permitido
##perfección
##Veremos
eni
cuentro
Prim
##nó
diola
##SAME
##Cerra
##Ora
guila
##fam
Donde
##tara
##seguros
##levantado
##Torre
##Medina
##inevitable
TICIA
##mostra
##meterte
##arquitec
##agarre
##Stan
##volando
Comen
##xDDD
##CLA
##Bolu
ciller
##sinvergüenza
BRA
icable
##enfermedades
tiera
##incorpor
##materias
cill
##contentos
##estuvimos
##expan
##sabias
##ensal
##doler
##actuales
##Joe
##Tipo
##prés
##altera
##dioses
uca
ATENCIÓN
##🌞
Felici
##impotencia
##tempo
##uh
##ped
🤩🤩
##monton
##XX
##diversidad
##lente
##had
##amado
##aviones
##sapo
##antici
##Mm
##borro
##hacernos
##kkkkkkkkkk
MOR
##valorar
##respaldo
##peronistas
##Dy
##aparta
##recuerden
dran
##encargado
##llegaste
mió
##apas
##relacionado
##hoja
cimientos
aal
##narcotráfico
##valer
COS
##exces
##🔁
##Tol
##OTRO
##🎁
##recurso
##Lpm
##buses
lese
##asquerosa
##interesado
##suplente
##volvieron
😎😎
##;-;
vero
##(2019
##infeliz
##marketing
unk
##Esque
clas
##genia
##magistra
##Bendiciones
##Jefe
##Café
##minas
##bruto
##arregl
DAN
gués
##hype
mentado
##estacion
TIS
##Só
secuencias
ENO
##molt
##agradecido
##solita
##teorías
##azules
ness
##Reino
##respetan
##bitch
##paras
##fresco
##imaginate
..?
##periódico
bias
##pea
##quier
##culpar
##perso
##suspiro
máfor
##descenso
presiden
##chistoso
##desagradable
##levantarme
127
##cobro
##estaria
BarbaraLopez
##Rocío
##coste
##TIENEN
##dragón
##domicilio
##Puto
##Orgu
##cierran
##gentuza
##perdimos
##hpta
##Estudi
ited
##Pura
##COSAS
##publicaciones
##desaho
##Gallardo
##medicinas
##Absolutamente
##pagó
mí
##gané
##Provin
##animar
##informado
TW
##positivos
##sorprendido
abil
##respondan
bb
jitas
##Pizarro
ful
ólogos
##lag
##progre
##mentirosa
##simpa
##italiano
presa
##comunidades
##atacan
##cómplice
HD
CIENDO
##negativo
##tránsito
##ass
##cuyo
##Vosotros
##millonario
trito
##vomitar
##tác
##Diputado
##Who
##legi
----
bata
Ley
##perritos
dadas
daron
##aunq
##respondido
landia
##Carolina
##Ata
##Aladdin
##pondré
##Conmebol
##insultando
##opositores
Alguna
##casco
##ques
##armado
##HP
##parás
##universidades
ída
alta
##evan
##SABES
##Hablas
##Éste
ívar
TÓ
##ocultar
##presumir
##transformación
##presion
##intentarlo
##Vida
##depri
##duelen
##util
?😂
mms
CEL
ports
😜😜
##lenta
##interpretación
##vuelves
##corona
##TIENES
##mejillas
cky
##nacionalidad
izaciones
👀👀
##donar
##admiración
##quiten
##comedia
HAT
##ant
##line
##trasero
##Otros
dear
risa
##ehh
##manada
jua
Hilo
ksks
##outfit
##Nuestros
##sexenio
##VENEZ
##optim
##tant
##transición
##exa
##votamos
##concer
ministro
##Movistar
tome
abineros
##persecución
##bell
##invis
##cante
##Sabemos
##Especial
##regalado
ándonos
##jor
bana
🇨🇱
##voté
##agentes
##incons
##zombi
##discriminación
##SS
gral
##manzana
##asesinatos
##geo
ligencia
##MOMENTO
##abiertos
##pep
##💣
##TAR
##Rela
##intentó
##manches
##consumir
##sonrió
##reyes
##cucara
##desesper
lon
##Andy
##Federico
##🎂
##Cir
##asocia
##lectora
##sorprendió
##permanente
##odias
##largos
##hubiesen
Dijo
##Viejo
##europeo
##campañas
ob
❤❤❤
cete
ties
##bebida
BuenosDias
##vela
##JAJAJAA
##COMUN
##TOR
##violen
hal
##Hago
##regrese
bria
##arti
##zu
##DIJO
##instruc
##habíamos
##comercio
algo
##dels
##still
CIS
ciamos
##Irene
##carajos
Sa
##happy
##cabrona
##tranquilos
juego
##wait
##infinita
##inma
###3
##“¿
ENZA
##editorial
lantes
##Salinas
##requer
##Diputados
##legen
gam
##PJ
##hechas
##politicos
##aburri
##If
##señoras
##preguntaron
😉😉
##titulo
##llegara
##relevante
##largas
##privados
##municipales
ganle
##llover
##objeto
imba
llof
##Ooo
##Zidane
##cogiendo
##seguidas
##🧡
##PEL
##Jong
decido
##ratif
##Trabaja
##colombia
##llamaron
##autón
voz
##discipl
ElCorazon
##sorete
##quitarle
##récord
dese
EnVivo
##wifi
##Cuántos
##Il
JAJAA
##Twit
##vendrá
##Alfredo
##👨
##cobrando
##CN
##Noche
Aire
##DNI
##coun
##coman
##Maravi
##candado
##dejemos
##misterio
##siemp
temporada
##Cora
Muy
HAH
enal
##aur
##hip
MES
larse
##imperio
##fijate
##dejame
##Mike
pied
##alquiler
##🌻
##alucin
##rota
##temor
##fotógra
##estadísticas
mn
?!?
##William
47
mani
##consola
##Nayib
pula
##actualidad
##Doctor
##esperado
##conocidos
##emocionado
chon
##testimon
##Comparto
##MACA
##conozca
##💬
##cobertura
##giro
JJ
##always
wich
”...
##mención
##confirmó
guin
##vente
##ELLA
##reflexionar
##사랑
Segu
##zor
gadores
voy
jadas
erol
Sigue
##UK
##Mamá
ules
##dure
##mejo
##contestas
INE
##raíz
inf
##HAS
##garra
##IMSS
##also
##pacta
##recuerde
##die
etafe
##compas
##votante
##Confirmo
##terrorismo
##stop
##inútiles
##culi
ling
##tormenta
##coherencia
habilita
##mamarra
##sintiendo
##ejercer
##quemado
##regalan
##BUS
##públicamente
##Things
CALLEYPOCHE
##다
##💯
osau
##pibas
tray
##sirva
##básica
##estarían
vila
##bebo
##tuitero
##levantarse
##Cré
##PSC
ciadamente
##KKKKKKKKKK
##usen
##agresiones
##combinación
##femenina
dejo
##MIXUP
Consecuencias
##civi
##trenes
amelo
##perdonar
eresa
##adoptar
##hostias
##reconocido
##irresponsab
##inv
##twitt
##escapa
##ilegales
tore
##avanza
##entendemos
dom
🤷🏽
##MILL
##🍀
##skin
##ignorar
##preciso
liz
##Maldita
ISO
yoff
##365
##renovación
iosos
##Rub
##👏🏼👏🏼
##Spiderman
yu
##7,
##graves
##privilegios
##Bona
##suces
##susten
##dejarme
##reclama
##Cartagena
tinto
##TIEMP
##TAL
##EQUI
##confundir
##pú
DADES
##torneos
##guión
##nietos
##preferir
uuuuu
##minimo
ars
##Allá
##procesos
##peruano
##NING
##Paula
##sencilla
##pila
##gorra
##grasa
##Cuatro
##futbolistas
##mán
##ptm
##Dal
##democrática
##costar
##Mila
hace
##corro
##garantizar
icóp
##cancela
##너무
##elab
##lean
unny
##enhorabuena
##verdaderamente
##todxs
III
mones
##Juven
##vulner
##amen
##acosa
##exposición
##vagos
##rechaza
##sufren
##riqueza
Nic
inados
##trasla
##Denun
##escuchó
##──
jales
SUPERHUMAN
##puntual
##amiguito
##operativo
##respondes
##🖕
##reit
eep
##Learn
##increíbles
##PEOR
mus
##ruedas
##ang
##Taehyung
##Ayyyy
cn
ès
toral
##haberte
##sanción
##progreso
##coti
##escriba
910
hahaha
##XI
##practicar
##Tarde
##durar
##supiera
##👍👍
##alber
##resolución
##curar
##bajos
##pí
##Toledo
##Jar
##GRANDE
##camina
##pera
##asusta
##Jaa
sé
EXO
##bellas
##disfrutes
##titulares
##escas
##ENCANTA
##alianza
rell
##AQUÍ
##aparezca
utbol
##desigual
##Asco
##Leg
##lame
##AÑO
##Olvi
##irrespe
##"¡
ittle
loque
##PENS
##curr
##herida
##preocupada
##escala
##abren
##CONTRA
ecos
##Doña
##conc
##Volver
##rancho
##temazo
Is
cm
##pretenden
##cuestiones
ped
Boca
teme
##😅😅😅
##Ernes
Usted
##ea
##respondí
GP
##enseñó
##indefen
##compartimos
Gua
##parce
##quil
##Claudio
##🍆
##Sex
Ecuador
##public
##JAJAJAJAJAJAJAJ
##DIRECTO
turias
##Ag
##aliados
##independentista
##DAN
##Prome
##totali
##inocentes
##Entra
##pájar
##movil
##pares
mbolo
##Max
jiji
##espaldas
?)
onato
##Pobres
##resultó
##celebrando
cistas
##viniendo
##teneis
##comentando
##🇮
varry
IADO
alguien
bertad
##Auto
##prisa
entamos
##atenta
HHH
gba
##BRO
##moreno
##Silva
##semáfor
lización
##escolar
dill
##chavo
##madera
에이티
##Hable
##Pensar
##Gonzalo
##uber
##COMEN
##recomendaciones
##villa
##éstos
##DEF
##duros
##Blanca
##abuelita
##jungkook
##Libre
DEMOS
##Aaaa
titudes
HORA
##baños
##pagos
##party
##여
##Naaaa
##Bibl
##mk
##trolls
Entre
##jijiji
##700
##Quito
##violento
dísima
abar
.000€
##Fantas
##compon
jjjj
##tuvieras
##carica
##billetes
##seguiremos
##sto
##open
##laborales
##vr
##cerro
##unidades
##MIE
##Richard
##obligatorio
wi
PRES
##galería
##DIN
##Fre
abi
rol
RETO
##AYUDA
##suelto
##actualizar
##bajan
TICA
##next
##médica
Fernandez
##traidores
##patatas
##compadre
##cuadras
##viejito
##Hablamos
##actúa
##Pab
vara
riosa
##coisa
##redon
##cobardes
""
##agencia
TIA
eiko
##Toronto
whi
GK
##Violeta
##inmunidad
##verán
##Déjame
##noto
##Dany
ueda
##Faltan
RM
😒😒
##Jan
##moni
##negras
##aci
##diá
##Dicho
##imposi
##abandono
his
##inteligentes
##anuncios
##recuerdan
CIL
lazo
##BAS
##PERSONA
##suprema
##infec
##seguirme
##cumpliendo
##secretos
##nostalgia
Tenemos
##Ignacio
48
rt
cionada
##afirmación
Imp
##Amp
##chip
##emociona
Mer
##🤔🤔🤔🤔
##falte
¡¡¡
##Stal
##abogada
💛💛
##consiste
Light
ighters
##refuerzo
##nieve
##doctora
##fanáticos
##recuerdas
##acercar
##campeon
filo
##Nono
##conocimientos
##interpretar
##FR
##CAMPE
##falleció
##Holi
##panda
##ful
##hey
##Jona
##Saca
##menuda
##soldado
##soporte
##encuentre
##patrimonio
##concejal
##jejejeje
».
ividad
##trate
##cuernos
##Abo
##Ases
vailable
Pu
##cloacas
##AND
tten
##20.
Acaso
ficios
Gan
##pensión
##naturales
##CABA
Luv
##pintura
##subida
##intente
baro
##vali
zal
ware
##llé
##buscado
##true
##raros
inea
##😘😘😘😘
##declarar
pso
##taa
##ligar
##bui
inidad
esar
##VÍ
Tran
##Hablar
##Sansa
##canso
##Adivinen
##asique
##valla
##sabrás
##mms
##psicó
##acabaron
iter
ulla
kel
##cerrados
tant
##cargado
##Guerrero
##dueña
##SOMOS
##conceptos
##JODER
##playera
##Haciendo
##ty
##faltado
##actualización
💚💚
##😭😭😭😭😭😭
ganse
##ojete
##nom
##poses
##posesión
##13.
tralia
##Familia
##gob
##duelo
##discutiendo
##sabíamos
##Finalmente
trices
##crímenes
tipo
TY
beros
##Debemos
##Bara
##Ye
##ate
##locu
##JE
##should
##pendejada
vaba
tización
Bud
##baña
##pidan
##ganaba
##dimen
##terminaron
##AT
##Éx
##Favor
elsea
fue
##Lil
##fijar
##supero
##CORA
##urgencia
##OT
##machistas
ícil
##pau
##Muer
##6,
##plá
Corona
Oh
cc
###26
##dejaría
EROS
##Penal
##14.
##idiomas
##Dudo
##VERG
##millonarios
##poni
##respira
cran
##teta
##Falso
acos
pasa
##CONO
##tomarme
##concentración
##araña
##maricon
##Jiménez
EnLa
##aficionado
##kiló
Ap
##sisi
Cul
desde
FM
##Glo
ath
##👇🏼
acep
##circunstancias
##modera
set
##levemente
##Cro
##pedía
##conclusiones
USA
##TOP
##JAMÁS
##católica
usk
##Podrías
##respondiendo
sed
##darán
##fino
##late
##mango
Santrich
##refin
##motivación
##europeas
##madr
##quinto
tele
##montaje
##sexualidad
##Jer
##🙆
ULA
charon
##hinchada
##Cuantas
##citas
##daños
Presidente
##deportes
##venda
blame
##Susana
##fascin
##DDHH
##Junto
##tasa
##diseña
##repartir
##cabez
##aprueba
ginal
##Eurovisión
##fracasado
amba
##calmar
ínea
decer
##olvidé
GH
##electricidad
ct
tibles
##borrado
##quitando
##INS
%.
##GoT
fs
##lana
##mora
##docente
##Peron
acar
##xeno
ferencias
##conforme
piró
vino
##Espan
##MADRID
tine
##sinton
Saludos
Nor
.)
##;(
Cuáles
##explota
##solicitar
##Germán
##Barran
Er
%,
reaking
arial
brada
##Acep
##Cumple
olvi
##Escobar
time
##Hubi
árselo
varesio
##seremos
##tranquilamente
medo
##graciosa
##observar
lot
##Fé
##pierdan
##compres
riles
encial
##virtual
TRI
thday
##Tucu
panish
##capturas
##recordaba
##atento
##exponer
##legales
##dam
##plantea
##disponibles
##trau
##genero
##deportiva
##mintiendo
##pobla
##integrantes
##unavailable
ROS
##auxil
##suscri
##Junqueras
##🆚
mbar
##bromas
##CM
##cagó
##JJ
##우리
##flashe
##Fac
##Bruno
##obvi
##viera
guración
##promete
##superado
cimos
##sufrió
guida
##Cy
##IT
##temporar
##visa
##scre
##frances
##Sanchez
##Ph
##JAA
##MUERO
##vencer
##ss
##preocupe
rlas
##$$
##callado
Nuevo
##tribunal
##agarró
🇫🇷
Do
##apodo
##sushi
ism
mmer
##tir
lota
teado
###20
##ship
lique
##Organ
##prender
##jugaron
##ça
##pár
risto
##Secretario
##tão
##reírme
##paraíso
##informes
ELF
tat
doso
##SOR
Santiago
##Esperamos
##homosexualidad
##15.
formas
##Dul
##ambul
mete
##Margar
##Policy
OOOOOOOOOOOOOOOO
trina
##malditos
##cata
##portal
##pesta
##Már
##divino
##vería
##sirvió
##sacarle
##cuchillo
LP
##Simp
##manipulación
##afe
##olvidemos
##Ángeles
##Dejo
##bondi
##record
##tocaba
ículas
##electorales
mida
##culti
##reglamento
##créditos
##verlas
##Niño
VIA
##mix
##gallo
inguito
##pudiste
éndote
##Alianza
##Bár
##Cier
##pésima
##Will
##hocico
mericana
##insomnio
tp
érico
##burbu
##discos
##temporarily
##📝
quistas
##biz
ógico
kit
dddd
##activos
##propongo
##lesiones
##cerrando
##🎵
##HACES
##falar
##reelección
##apuntes
ESPN
icornio
##escandal
##trayec
##empleos
etw
##servidor
JAJAJAJAJAJAJ
##negativa
##chorro
##disposi
##hahahaha
##demonios
##🤩🤩
##hit
jol
##representar
tróleo
##pano
##cruce
##chun
##cuand
##193
##violates
##intriga
tase
##{
zaro
##engaña
##Investi
ulando
##consiguió
IBLE
jajajja
##nieto
##presentan
uo
##princes
##incómodo
##저
##Maldito
##fit
##VALE
kus
rus
##Conoce
##Story
##comparti
##Rid
##violar
TEEZ
##Ze
##Ofici
##picar
##Apoy
##afer
dl
##tarjetas
##mediocres
##QUIERE
##Díganme
##org
dolfo
##nubes
##comemos
##exclusiva
##Temo
##ATENCIÓN
🎶🎶
##Thor
##→
##wsp
##esconde
##inocencia
##azu
tional
##derra
##pelicul
##convence
pregun
##Alvar
versa
##interrump
##Polí
##Tiempo
##caros
##opres
##dificul
##afil
##psiquia
##ans
TAD
##inspi
##Alfonso
##ceño
poner
torado
##whis
##manzan
##rompen
eed
##Ernesto
##escucharlo
gno
##necesites
##identificar
##wish
cié
##💙💙
##Mateo
##banderas
##grabado
##ilusiones
##corrector
##Pom
hada
##Mujeres
##gobierne
##maten
##monstruo
##ak
Twitter
##☆
##nO
##TRE
##helicóp
##dolares
##simula
##reaccionar
##pertur
##Andro
##indul
##factor
##varones
##rápidamente
##10/10
##poeta
##Gobernador
..!
quiero
##poes
##oficinas
##Lara
##5-
##MC
##inespera
##muuuu
##Baby
##cover
##atacando
##copiar
##zapatillas
Tan
##mt
##Caste
##teñ
😂😂😂😂😂😂
##deso
##TENER
##mires
##valientes
##està
##muchísimos
GG
##🔥🔥🔥
##Mayor
##Bolívar
##Ran
lidos
##lloran
##TUS
##engaño
##despla
stein
##jefes
##senadores
icados
##SABE
##apertura
💛💙
##kg
##Acom
##Esteban
##paredes
BudLight
##cabezas
americanos
##Pere
##amiguita
##prioridades
##cai
##diplom
kg
ectos
##UD
usiones
sada
##reve
##comentado
##jeta
##Empezamos
##Justamente
ark
uit
##2.0
##tomaron
##Álvarez
oras
##Cuer
erados
##bellos
##épocas
##data
isimos
##pedor
##entendes
##Seguir
##confundido
##prometido
##manija
##pañuelo
##sacarme
##promover
hn
##sigamos
ander
onda
##alerta
##consideran
##reflejo
##chairo
##Derechos
##Edad
##mantenimiento
BIEN
##simples
Crees
EEEEE
##picante
##desmadre
deando
##Marina
##HECHO
##2-0
##alo
##made
##pelirroja
##virus
zen
Escu
##>:(
##Est
55
##buf
##Just
##labora
##descubrí
##ATEN
##sabrá
##educar
##promet
##compla
##clínica
##maja
##little
##Lion
jsjsjs
##ministerio
cidio
##duras
##chilena
##comerme
tuito
##susur
##conste
##drogadic
IENTO
##🏳
##vías
##intentan
##beba
##santos
##equivocada
##­
##bua
##colectivos
##harás
##instalar
##ubicación
##acordas
incón
##degen
##Chau
##estuviste
chamos
pinión
finales
##políticamente
riba
##Eee
##ordenador
self
##Públ
##climático
##ficar
##sindical
##valora
##Básicamente
##interactuar
🤷🏼
##acusado
##prox
##matr
##Cristian
##Aprende
##✍
##demora
##cinismo
ZÓN
ette
udes
##Encuesta
##difusión
estructura
Hora
enix
##austeridad
##😭😭😭😭😭
##eligió
##suegra
BudLightW
##Mae
quitas
##MG
domin
##exil
##ósea
##comas
##pregunten
##salarios
##carros
##envió
ILER
##rechazar
##organizado
##explí
ersey
kachu
##Negro
##sacamos
##arbitraje
##mayús
##conquer
##revisión
##layo
##Vayan
ív
##ayudó
senal
Hu
gela
tándome
##season
##Arre
##trabajamos
AU
##proxima
##Vean
##⏱
gb
##mejore
##tradicional
##conducir
##Zo
##europa
jsjsj
##Inés
##master
portes
##agradecida
##가
##inmediatamente
##Apoyo
##aburre
##precis
##Simón
##entré
##HISTORIA
##trío
##Conmigo
##Pes
##muestras
##besa
##varón
##pescado
##distribu
##estaciones
##💔💔
##puñeta
##juzgado
##EP
##demostró
##científico
##Mary
##aaaaaa
##8,
hyun
jamos
AlAire
##boliche
##Warriors
##deseas
##geniales
##Roja
##pedazos
##seguirán
##Dur
##Gus
ÍSIMO
##Deben
##trataba
##hist
##Diana
##whats
##gráfica
##disfrute
##terminando
##bata
##libr
isimas
##versiones
##dejará
##3000
##😵
##hap
##violenta
##incapacidad
##COLO
##💋💋
##hazlo
##46
ilan
##volveré
##vales
##Ósea
##manía
##árbitros
HY
##psoe
##Marc
##Ple
òn
lama
##usarlo
##diarios
##Here
##vestidos
##hicieran
##abandonado
##desarrollar
##mod
##cursos
##cose
##Cerro
##cres
##remera
##idk
##sonr
##prestar
##Compañ
izon
##pón
##Piensa
CUR
##cuota
##enseguida
iduría
##físicamente
tienes
##flojera
.........
KO
##paliza
##Ortiz
##sistemas
##culiao
eeeeeeee
##ufff
##TC
##refleja
##sorpresas
##Santander
Bra
##occu
##groser
##Escribe
##Pl
##podías
##pegarle
##romántico
##Rajoy
##podremos
##Recono
##decreto
##mr
##Toca
gnante
##todes
##requisitos
taleza
##vodka
##Why
##capr
##abres
##presto
##daddy
##únicas
##Kicillof
##expulsión
##manipular
##calce
##MÉ
##traves
##evidentemente
##violaciones
##vendió
##aprobó
##explicando
##Hici
##OLVI
erantes
logos
##menospre
##contestado
##desprecio
Vale
wood
##leva
##Buah
##ruso
🤬🤬
##paren
##apu
árate
##realizó
##angustia
##chingar
##Tanta
##comiste
##✌🏻
tían
##PELOTU
lame
##BEBÉ
##tarifas
Encuesta
##descanses
?..
##pelado
feo
##panorama
##xa
tics
##boa
##lloviendo
##boico
##balance
##Cuéntame
✨✨
Tierra
##MALDI
##alumno
##disfruto
##😂.
uk
Nicaragua
fias
##Andra
##chavistas
NOR
milia
##parió
##TIEMPO
##protestar
##부
##Queen
tense
##habrás
##comparando
##followers
RAE
ulario
##gigantes
##utilizan
##naa
##destrucción
##principalmente
##hojas
URA
##65
mendi
Fran
##Happy
##mágico
##Jul
##inepto
##TWIT
##Montero
cación
##afirmar
##rutina
##JAJAJAJAA
##soberanía
##metida
##constantemente
##🔸
##vola
##reafir
##Florentino
##camioneta
##innecesario
##compraste
##Defensa
##cometido
##Capitán
##meno
##herramienta
##intoler
##venezuela
##pidas
##Sch
##PAÍS
##JAJAA
##contactos
##Evidentemente
quetes
##break
##Lanata
##cueva
##좋
##DIJE
##minoría
##créeme
ides
##Mina
##recal
Castro
##facturas
##felicitar
##caía
##subs
##intenté
##botellas
##cuidados
AB
##rompiendo
ões
istes
fado
##Guti
Habra
##Sena
##divul
##mundiales
FEC
##ajaj
##originales
😍❤
##Fútbol
##ligeramente
VAN
##pom
##producir
##somet
##Wo
##Ño
pitos
##elegante
##🤟
##cansar
##Awww
##SEGUN
##ANTES
##MENTI
##vistas
##ceder
##preparados
##anor
##criatura
##3:
##policial
##Nota
##ARGENTINA
##parciales
##✈
dense
Creo
##Flores
##USTEDES
##RESPE
##luser
PAS
##Gr
##destacar
##apoyado
##murieron
##considerado
##Animo
##despo
Red
##inco
##libra
😠😠
##aguas
##Dragon
##despro
##demuestran
###0
##aplas
##acertado
anal
##obri
##cagaron
##llevarte
##lanzamiento
##tortas
##estatal
JUNIOR
##honestidad
##moi
##AHHHH
##dijimos
##kill
##Mallorca
##Haha
##reún
aremos
##calum
##jajja
##estabilidad
##solar
##gordito
##japonés
##Trujillo
aar
##gila
##nova
##morder
##😬😬
aaas
##cambias
##ingeniero
##hacke
ORLD
##ayud
##luce
dil
gem
Choice
##HORAS
##브
##venti
##recibí
##círculo
ísmo
##LINDO
##Dic
##animación
igi
Viva
feliz
##boleta
##certeza
##parques
##politico
##Debes
ÚS
##Torra
##oi
istencia
##caprich
##ndea
##bolso
##pavos
##🤤🤤🤤
##LGTB
##habra
ministra
##desconec
##ia
##conquered
ecas
##Hagan
##CLARO
##advi
##tomes
##asuntos
##ignoren
##jurado
##okay
##lesbianas
##Evan
TICO
tituir
CEP
##Capital
##nenes
##chingon
##cubanos
##diciéndole
ÚLTIMA
zura
##vacas
##oscuridad
GB
##parodia
sung
inger
##invitó
##Seguí
pados
##Almeida
##Federer
osotras
##->
##cú
##pegando
##ensalada
gay
##permita
##gem
##Pési
##pesca
##encargo
##indepes
##extradi
##prov
##petar
tamo
Aristemo
##deciden
##colombiana
##territory
reocu
##switch
One
##NAR
##Impresionante
##Latinoamérica
##Tá
tuve
##Android
##reformas
cab
##Español
##sientan
##manejan
##directos
##equival
##escritor
##informan
CIMA
##World
##defensores
##similares
##Rubén
##centrales
##duran
##llaves
💩💩
##ganadores
##asociación
##vincu
##Bukele
eeeeeee
##parale
##twittear
##RU
##Seré
##Exp
dral
##Not
micos
##recordó
##Confirmen
CS
##boo
##respal
##inmensa
##enseñado
##migración
##arreglo
##sospech
##características
##Daniela
##terremoto
Sabado
Love
ereo
pias
##resaca
##sábados
##suman
##contamin
##💦
##Sco
##mortal
cazo
##nan
##plen
##ocurrir
mie
##privadas
##homofobia
TOP
##jugará
##¡¿
caloni
##Espec
##Podes
##pessoa
##SOBRE
MartesDe
mun
cuán
##lesion
##contundente
##41
texto
##morro
##improvis
##traído
##very
##consultar
uch
##occupied
inan
##HOS
Recuer
##Difícil
egio
entre
dónde
##cortos
##cristiano
##does
##Frank
Claro
raron
##probé
tuación
##comidas
##levanté
##DERE
##superiores
##república
pone
erato
##take
##choco
##opcion
##Lá
##signos
uz
##Juro
drás
##tobi
ori
##camiones
##clavo
##ALV
culpa
##AAAA
Mur
##cuervo
ADO
geni
éndum
##fallos
bern
##Ash
tár
##traducción
##Querida
viedo
##Usa
disima
##echas
##RESPON
##mencionas
##Potter
##VS
##subieron
ezcan
##cabre
Pr
##rindo
##soltero
##Paris
##Lola
##buscaba
##Mercedes
##aguacate
##temporal
yl
##Aa
##avances
##Estadio
##tip
##popu
##abiertas
##petróleo
##sucur
tv
##provecho
Hace
##cruda
fume
gota
##album
grafías
tee
fren
##amaba
##diversión
##🔹
OW
baron
##tarta
##echaron
##Gir
##ajajaja
##VIE
##explican
##inspira
##Odebrecht
##eliminado
##jajajjaja
##molestias
##CONFI
##voten
##factores
##Green
##denunciado
##desaparecido
##acabando
##desconocido
ICH
##OJO
##version
##Mán
##sabría
##venimos
##europea
##discrimina
##hormi
##alguém
##infil
##basado
##bucle
##suficientemente
grano
##licenciado
##DOR
##despacho
##transforma
##ASCO
##said
##mirado
NOS
##zurdo
##TON
ficas
##vivió
##acondi
##oo
##becas
##soñando
##Peñarol
##desnudo
38
New
##LOL
##enrique
##universal
##são
##weas
##anual
##ganen
##HAHAHAHAHA
##III
##ofrecen
##carnal
##Pelo
##jes
##Repres
dío
##Mej
##Et
ellos
##Miss
##citar
##fro
##Follow
##caradura
ICADO
##Sean
##habilidad
##Coron
##categor
##nuclear
##amanecer
##feto
##Australia
YS
##ignora
dalo
tarras
##consol
##sillón
ojo
##múlti
##acompañe
##alcaldes
##seriedad
##run
##ENC
##bei
porta
##chus
##HUE
##estupendo
Che
##expulsado
##Aver
egro
éisbol
ultas
##notado
##reírse
##Papi
##pajero
##usurpa
##Iron
##cuartos
##diferenciar
##ESTÁS
##generan
##sticker
##irrele
erencias
##alias
##dejaré
##reper
##manipula
##injusticia
##Salvo
IGH
urita
##idola
dalupe
##camara
erías
##Presidencia
##majo
##Extrema
thon
##enseñaron
bién
gueme
##tareas
##nube
##Asturias
##ministros
##MX
##preguntaba
pate
##abono
##aspira
##autobús
##depender
##previously
##toc
renda
##dinosau
##agus
##Mercado
##payasos
##logran
##ᅠᅠ
itud
##arde
##depre
##serias
##hablarle
FU
LEC
##PERDÓN
##bajada
HAHAHAHA
ampe
##jar
##inconveniente
##hater
##divertir
1!
##Tec
##diciéndome
bd
##Manuela
32019
##MIEDO
##monto
##aproximadamente
pis
💞💞
##Wee
##repara
ALa
Messi
##their
##rayos
asca
##sabio
##transparencia
##entiendan
genas
##quisieras
##exagerado
##Axel
##cartón
rana
##Uuu
SOS
leces
##aclaración
##(+)
ean
TURA
##Técn
lum
##oídos
dental
##vestuario
🙋🏻
video
##progresista
KI
tao
##comentas
##salidas
##Disculpe
##productivo
##continua
gén
##Kawhi
##funcionó
##frenar
##pagaron
teamos
##chota
##arreglado
FelizJueves
##sentimental
##sono
##símbolo
XO
##vara
##👉🏻
##Ostia
##ove
##abandona
##Miércoles
##Bre
##asignatura
já
##Salió
##escoria
##arruinar
##mercen
##pelotudeces
##provincias
cord
dure
##Llé
##hablame
##Gay
##torno
##rectif
##Urib
##señales
##Ignor
##barro
##ajá
##garantía
##JAJAJAJJA
We
##opon
##Fas
##Ejemplo
##trámite
##adecuado
BLES
##rencor
##Silvia
##cambien
##embajador
800
led
mista
varon
##apres
##OH
##extor
##creador
##demasiadas
##plana
##ofrezco
##Pul
terror
##cortado
##cale
##coron
##museo
##Getafe
##DEMAS
segura
##Vuelvo
ití
##educado
##gustaron
axa
quad
##diccionario
##🤮🤮
##ready
##lavado
##Guardiola
pra
chor
##Arya
🔥🔥🔥
##Agre
##burra
ded
##tell
##violan
##firmó
##olvidan
jaa
##Verde
##vuelos
##utilizando
##foro
Debate
35
##rabi
tell
##britán
##tardando
##celulares
##🐍
##supieras
##trabaje
##trayectoria
##Pier
##ESTOS
##biblia
##Ivan
##Gaby
##were
##FAM
##medalla
##pistola
##conversar
##🐷
##Julia
##cuerda
##Simon
##Teniendo
##atas
##desar
##18.
##irán
##príncipe
##mencionado
라질
##insiste
##fábrica
##determina
##Millonarios
dioso
##recomienda
##callo
##Ly
ribe
##guys
##Mariana
##ensu
##soñado
##MÍ
##bienes
Puebla
andome
##Cata
##contestan
##ehhh
##federales
-19
##Papá
estación
##referencias
##festejo
tena
##vistazo
rector
##culto
ológicos
😡😡😡😡
##operaciones
##apostar
##̈
##cobre
##2.-
##pasto
##liderazgo
##rusa
##servido
idor
##reportar
ciosos
##dilema
##disfruten
##브라질
##care
##jer
##give
##declaró
##atribu
ÃO
##campes
##Ep
thur
fobo
##Cár
traste
##sú
##mesas
elcome
##amooooo
poder
##máquinas
##fantástico
Emp
mash
##Imper
##detención
##Xbox
##indignación
Indepen
##Lozano
pear
##diva
##Busco
##indirectas
##Suecia
##funcionando
##nic
elma
##dilo
##😂😂😂😂😂😂😂😂
inero
##quedarte
Pal
vito
##desafío
WithLuv
##suyas
##mentes
##Mentir
##huelga
##preferencia
##afron
##fos
tomeu
tarias
##secuestro
##academia
##leerte
cable
##Doy
##Provincia
##ña
##FMLN
##49
##cintur
##ofreció
##Zapatero
##parir
##Opino
##relleno
BudLightWish
##chocolates
##tradición
GIN
tom
##Defen
Plan
##partidas
##Tercera
##orgullosos
may
##Error
##cuentos
##proponer
dele
##TRI
##Christian
##Lista
##March
##heridas
##escucharla
##tronos
##entendiendo
##batallas
##poderoso
##Sigues
vate
##sonrisas
##52
cosa
##ENCIMA
Ciudad
##figuras
##capitalista
ueno
##consideras
ONAS
##equivoque
##table
##ejemplar
midad
Righters
##terminas
##yaa
##Existen
##pactado
Mis
##leyó
##could
##Dad
##mamon
##01
##flojo
##minor
POILER
##Siga
##caminos
##SERIO
jados
##amé
##conteste
##cómoda
##comentan
##embajada
##uribista
banas
VAS
##inda
##clandes
##VIP
##comerte
##publici
0000
##watch
xia
##0-0
##West
##civiles
##complejos
##despertado
##filtros
WA
##Chin
##🎤
rimestre
##chapar
##ral
##power
##transmitir
##desqui
##riquísi
piz
🤣😂🤣
##petrol
##ése
##influ
##BOR
##Fred
##argumen
##ayudando
##consuelo
##automáticamente
iiiiiiii
##URGENTE
máticos
amilitar
##hd
étaro
##presentes
##cuader
##paraguay
dit
##ahhh
##imagine
##<<
hã
##melo
##Lenin
##entregó
tección
##birras
bral
##god
##emojis
##eterna
##Reforma
##sacrificio
##leon
##Equipo
##decile
##entenderlo
##coincidencia
##Hija
##hno
##better
##rivales
##1/2
##marcó
##🏅
##ls
##CADA
##Grandes
horia
semos
##aires
##inició
##encontraron
##irra
##torpe
##mienten
##196
##vibras
JAR
##Típico
jec
ímp
##sismo
sssssss
##llenan
PF
##novelas
##confiable
##poema
##amoooooo
##irregular
##hamburguesas
##kiero
tenario
##Recuerden
##Juárez
##cansancio
##suavemente
44
Ob
##👍🏼
##Roy
##femina
##1°
##😍😍😍😍😍
##atar
##echó
##Lavagna
ieber
##tenian
##grabando
##bombas
##enamoré
##preparación
##6-
##AI
ólico
##pizzas
##atropel
##circular
##fifa
##ansias
##abortar
Ve
##🔵🔴
##satisfe
##lor
lear
##señalar
##legado
##narcotrafic
##👌🏼
##DEJ
trate
##Victor
##aliado
##dirigido
Señ
##Manu
##Contes
##aceptado
Inter
##Miles
##campos
##tbh
##🥺🥺🥺
##Xavi
##león
##extremos
##silenciar
##SOCIAL
##socie
##salgas
##cometer
person
##repeti
##atraves
___
##inventado
##VES
##PARTE
77
LOW
##Pucha
##atrop
##Romero
##dividir
JF
##mensual
##platicar
jese
ullo
##especula
queño
##supermercado
cto
##Agar
##Mutual
##prometió
elasco
##Jajajjaja
##pasillo
perativa
##desesperación
##posterior
##conscientes
##ratos
##Fede
##repas
Pregunta
##formula
##sabiduría
cería
Bueno
##layout
##imaginaba
RRR
urt
##kkkk
##quizas
##tendria
##perreo
##Municipal
##Lab
terias
##micró
##desapro
ult
##fácilmente
NBA
billa
grafia
##torre
##trozo
##ganarle
##Virgen
##MY
ison
tice
##nef
##tabaco
##🏃
##chorros
##creando
##LLORANDO
##Prin
tilidad
##gonna
##portá
##semifinal
##directora
##intercambio
kini
##usurpación
##escab
##PODEMOS
##gráfico
##fanático
##Lozoya
##jala
cientos
##Cameron
##pastilla
##Pokemon
##suban
##Tremenda
##gratuito
body
##70%
##Tomás
##BUENOS
##culos
mato
##azo
##Fake
##haciéndose
chaga
##demasiados
##kilómetros
jajajajajajaj
##editar
##inu
tenos
🇪🇦
##delin
##Hijos
##licen
##queen
ety
##litros
##moment
##wal
##Poli
##nuca
##detenidos
darme
##despier
FelizLunes
##qlo
##chaqueta
##ayú
##MUD
##tava
##investigaciones
##sinies
hot
##act
##guapísima
##paloma
##btw
calip
crítica
yol
lee
quillas
Cristina
##Pie
##Digamos
##brother
onesa
##frustración
##taco
##cdmx
##stranger
##Pasto
##espan
##incluyendo
tiro
##mamás
##montado
Hi
##Tia
##remake
alos
##muñeco
thers
##fujimor
##reportaje
##rompo
##camarada
hip
yoon
ester
##Rueda
##politi
##pasarme
##testigos
##venia
##Mensa
##encabez
##old
canos
##recol
##veran
##mandamos
tudo
ablos
##deudas
##gustes
deron
ologías
##SEGUIR
##Sir
##Jesus
##económicos
idade
##vacía
##debilidad
##convertirse
##CAP
##abr
chale
##celoso
##ilumin
##putear
##atentado
##europeos
##VISTO
##Bilbao
Fue
##eeee
##desgraciado
estes
##importe
##liberar
##Cala
##🇪🇨
##Carla
##veinte
##Hahahahaha
──
##combustible
ANTES
##ball
##PM
##filas
##155
##morbo
##placa
❤❤❤❤
jona
##GOBI
varios
##playas
##Unidad
##involucra
neces
##PODER
##armario
##ciento
##dialogar
##recompensa
##180
##Lady
##Sp
##aprecia
##peligrosa
##aro
##beneficia
##conociendo
##2009
##oler
espero
##!!!!!!
wen
##😡😡😡
CUERDO
ifican
##quince
💜💜💜
##andu
##morí
ícame
##clásicos
##Ohhh
##conoz
##CONS
##expresa
##:-
##despido
##abriendo
##trabajadora
##⠀⠀
##nomina
##choque
lín
##tots
old
##Mirror
##senadora
erador
##revol
##gravedad
##Ulti
##acerc
##exquis
##AAAAA
##novias
##cerraron
##uns
culas
##correctamente
##arranque
pping
sivos
vinas
##desorden
##compartiendo
pus
##mante
##🇳
arrollo
##calcula
##jd
##acabamos
##populista
LIP
##epi
##sacu
##concejales
blan
##aprovechando
Sub
gao
##dific
##Salí
eu
brard
##💰
##costos
##Norberto
##acumula
Mira
##190
##ganadora
##16.
##PL
##💁🏻
dumbre
##efica
##tuviese
ige
##Tern
cions
##valentía
##defecto
zona
##hormon
##oli
49
##vu
amela
##mica
##AMIGO
!)
##🦅
##하
##Impor
##joyita
##acostumbrados
##Artes
##brillo
##😩😩
##corren
##impedir
##separar
##esperabas
##Oslo
##Siren
##Márquez
##Naaa
##piano
camente
##ayudarme
##tendríamos
ciende
##Descansa
##contestó
jaron
##casada
##intercambi
##lacra
##Pren
##rola
##United
🎉🎉
lash
##goma
##mafioso
##guardado
FIFA
omba
##llamarme
ñó
Cono
##porquer
Nada
##jugué
##Congres
##movilidad
##continuidad
...”
##ajajaj
##escapó
aces
##PUN
Sw
##(200
##Zárate
##Maestro
##BI
##salvó
##tox
##Abrazos
##apagón
##Pública
##retir
##enfrenta
##Imaginate
##Solamente
##Militar
##biología
##NOOO
🤢🤢
##😄😄
##anon
##frag
##petro
##Bec
dec
ball
##lanzó
##caricias
##peg
🇪🇸🇪🇸
##epoca
##ignoran
##tardado
tty
##Hizo
##Hablemos
##comporta
##desempleo
##Keiko
##Fua
##encantada
##something
Voy
##Ree
##deriva
oon
##presti
##municipios
##humanitaria
isma
##Perón
##diseños
##amistoso
##manejando
JI
##taxistas
##high
VIRAL
/07
##acudir
##RR
##20%
chool
##Pogba
##TN
##ESC
##1500
##posicion
##encerra
##❝
##desfile
##Comienza
##mind
##Gerardo
##conseguí
##confusión
##vió
##Recom
##mocos
##mogolico
##Tyrion
##hierro
##19.
##demais
Cristian
##blancas
##abu
##Master
##abusos
##reunir
ElCorazón
##cogi
##Canc
##Tema
##funcione
##56
campe
mismo
##esfuerzos
##cayeron
##conformo
##wanna
##falacia
##energías
chazo
##referéndum
##FOTOS
##cuchar
##denunció
MTVLAINSTAMX
##30%
##stories
Du
Fuera
##Paseo
##almohada
##dependiendo
##Juez
ábado
##banquillo
Az
##ÚN
##XDDD
##maratón
##acariciando
JU
##decepcionado
Jus
##Ide
##arr
##ciencias
##BLO
##Compren
medio
##Eugen
##informo
##cargando
##song
##Chelsea
##democra
Spain
##relevan
ñé
##work
EET
muró
##meterle
ibo
##blda
##Henry
##msj
<3
##estúpidos
##cuya
##franco
##rabo
unción
##recordado
díos
##Caso
##coñazo
UNG
##vem
##interesan
##indicado
##vicepresidente
##Infor
##Acosta
##plataformas
tella
##recibieron
##agradecimiento
##racistas
##Colón
##aumenta
isla
biendo
##estereo
##Zu
##conv
sante
inando
##Narco
ayaquil
orando
##Lis
tiful
##Dici
##Próx
##FB
##Yendo
##balcón
##irónico
##comía
##charlas
Sel
##Army
##Aso
##amantes
##herramientas
##gilipollez
##bit
tuvieron
##ponernos
##demostrando
##cercana
Atención
##TENEMOS
##Hacen
##acusación
##gin
##HIJOS
##estou
También
Novaresio
##perdidos
겠습니다
##pinto
##Rick
##When
##nooooo
##perfume
##iremos
##gilipolleces
ione
güero
##insisto
ristas
GRES
TIVO
##sentó
##completar
##percepción
pie
##miserables
##harina
##nacionalismo
TORI
##11:
##enve
»,
ayy
##meus
##Gom
##analfab
##harry
##llegues
##complicada
##cagon
##andando
##ANI
##cuchara
traciones
##empiecen
##aparato
##carpeta
##helicóptero
##hermosura
##fen
##ajo
trarse
PIN
##Nieto
##exager
##continuación
##infiel
##Izquierda
ET
Visto
##invo
##Jackson
Verdad
##espere
##Nes
giar
##Ner
##Creí
##chec
##MAYOR
##모
bica
copa
##sién
##design
Aquí
##Lionel
##consiguen
PAÑA
##Bye
##pretemporada
##Times
##sacerdo
##regional
ved
##being
antiles
Toda
##Asu
##creído
xESPN
ennial
##aba
plona
##Canta
##bravo
ou
##psicología
##asesinar
chitos
##específico
##COÑO
🤣🤣🤣🤣🤣
mese
##passa
##ESCRI
##aula
##false
##vainas
##gallego
##traiga
##고마
##Kast
##most
##Barbosa
##bolsillos
met
anada
etera
nadas
##denig
Central
MTVLAVIRAL
##antecedentes
##Elena
##exting
##fumando
##CHO
##chamo
##campera
##liberación
##Alves
Esper
##lago
##correspondiente
wU
##KD
##esten
##exhibi
##pesados
##tenerla
##tequila
scar
##LITER
##Simpson
##pareciera
##Flo
##POLI
more
##Tendría
##reacciones
46
tula
##ASES
##angelito
lea
vían
##Wick
##adopción
##basada
##vosotras
##Cay
##enamorar
##ofendido
FelizMartes
UMA
##ds
oyano
##FALTA
##done
##herencia
##impone
##yan
##vampi
##dirige
##rescate
##Clo
abras
##compramos
ford
##Ambas
##monos
##cigarro
###5
##🔄
##PLAN
Neces
corro
##colgar
AK
##motos
##boquita
##FMI
##Cosa
##panque
##ts
##OJA
##👅
ísame
plicar
##Fácil
##years
##Benede
##conejo
##actitudes
##resentido
##extradición
##haberle
##notici
##reventar
##😍😍😍😍😍😍
##invitaron
##carteles
##UC
##(2019)
GRO
##bé
sabes
##▪
##Py
##beau
##sexta
##quedes
##감사합니다
ñi
##peti
Gi
러분
chat
##ejecutivo
##aspi
##dolido
oncesto
##toalla
##aliento
##Ejecutivo
##describir
##molestan
##cuenten
##presentamos
##Muero
##Bullrich
##ascensor
##📱
BoyWithLuv
##💜💜💜
liano
##gordos
##também
oxas
##lora
##habrían
##intolerancia
##gustaban
##asesinados
;)
itarios
##Gracia
##ال
írez
##gli
##carcajada
##🔊
chados
##retor
ionados
##Teresa
##Princi
##meh
##🤭🤭🤭
##cuña
##MP
GKOOK
##bando
##trabaj
##respetu
live
##cayo
##ESCUCH
##llanto
##recorrer
##dirigente
Tal
TAA
##muestro
##palomitas
##😈😈😈
##dream
##polo
##Agustín
##Personas
ONE
You
BADO
olidar
##líqui
did
##volvería
##prejuicios
Dinámicas
how
umes
##plaga
##videoc
ÉR
##nece
##Taylor
atar
##ACABO
##religioso
##🤐
##📽
##detesto
##같
##pay
Gameo
ASTE
Abra
##ajenos
pirar
##plural
undación
aaaaaaaaa
fies
##votaría
##deberian
##Halsey
ês
##docentes
##Vel
rarse
##fortnite
##béisbol
##Alcaldía
##Deportivo
##instalaciones
cionando
##taxista
##cómplices
##gota
fran
##then
##tips
mbla
##golpear
##organizaciones
coco
##CONCHA
##zurdos
##noooooo
##incorrec
##exacta
##resistir
ecí
##cis
ueso
##Rojo
##MINU
⠀⠀
##CHE
garyen
##MARIO
##RD
##Gabri
poración
##equivoqué
super
##PUEBLO
##mister
##2019:
##olvidas
##enla
##pegas
##soltó
##chamba
##textos
##Política
##donación
##Colegio
##ofensivo
##ande
Puedo
uelto
tum
kita
##frac
##arres
##Pis
##Sk
##resal
##entraron
##Aber
##cambiemos
##dedican
##trop
##amplio
Libre
##chava
##nel
DDD
##afán
uty
tanes
liar
##recordando
##escaños
Pri
str
##firm
lament
##apoye
ppé
Sexoxas
##fiscalía
##soluciona
##Jajajajajajajaj
##independentismo
ej
##decenas
##estimada
##contactar
##toler
gger
.😂
##amiguitos
##comerciales
##exclusivo
##masaje
##defiendes
##Adivina
##Um
##Tab
##desnuda
##encantaba
##naz
##pudimos
##penalti
Cola
##kkk
##well
##atreve
##confron
##estupen
iaomi
##DIGO
##fallecido
AND
##monar
ot
putas
##deu
cillos
##conmo
##comunes
##fideos
LLO
##científica
##Duda
##despertó
##doce
##acusaciones
##ey
dáver
##vivís
##Humberto
##MORENA
##esclavi
ÜENZA
##acordado
##contaron
##sinónimo
tadura
##VERGA
##light
##miradas
##compartirlo
##eliminación
lizar
##traigan
Amor
##Das
##nome
tenta
##thank
##què
##Poner
##burgues
##dulzura
rari
##Rojas
##elegi
wh
##dificultad
##aé
##ONG
##quisiste
##Desgra
##Rayados
digos
##luis
##derri
RD
llosa
##jugadora
##moderno
##impresion
VERS
##❤❤❤
##행
Perú
ttenham
##Ocho
##Félix
okjin
##Tir
##Ramírez
##jodidos
##protocolo
##78
##Paola
##miento
##Tenerife
##avenida
##GR
Era
Pan
##morirme
laba
##Gro
##llevará
##Miedo
##moleste
##130
##Juega
##Keanu
##cuela
##VÍDEO
##Preciosa
##APO
##2006
##NOR
##cuba
##Diosito
##Tour
TAM
##ADN
##Deberíamos
##고마워
##Mark
##calzones
🌹🌹
leres
##llevarse
##Vasco
##algui
##Fujimor
íder
##Anal
##separado
##Años
izacion
##Jonathan
éns
##venis
##traía
##Fuerte
##monedas
CristianCastro
consultas
##uribismo
##Vicky
##Bellas
##gastado
##vení
##inyec
##apoyamos
ielo
##cuide
##CL
##Bir
##anticon
##Abr
vv
생일
##Llegar
##buscamos
##streaming
##2008
##enre
##Allen
##cantera
GameofThrones
tala
##BUENA
tari
##ere
crático
##cuidando
CC
Cuenta
##👏🏻👏🏻👏🏻
##activar
##emocionante
##selecciones
nister
##archivo
##frun
zación
##necesarios
##Piz
##foll
##rusos
##calendario
Semana
##moverse
baum
ñalosa
##decír
##dejarse
RIO
##emitir
##cortas
##QUEDA
##desub
##Osorio
##conquistar
##científicos
##usó
##won
##PRIMERA
##Pun
##🙄🙄🙄🙄
##instrucciones
jdj
##17.
##Camilo
##desil
##aclaro
##perfiles
úo
##Josep
##relax
##resentimiento
##bastar
##ideales
,...
##vue
Fir
##🙊🙊
##spoile
##filo
##bizco
소년
##Ebrard
##CEN
##bosta
##conme
##Guevara
AP
##Busque
##preocuparse
##Bob
##reggaeton
MIR
##ocurri
##cierren
YYYY
River
##BOCA
##pará
:"
##ks
##ayudado
clipse
##ESTAN
##Lakers
##histor
##absurda
DIOS
acal
##lesionado
##bona
##ganará
##Namjoon
##vid
##EPN
##VEO
trica
##vidrio
Contra
##gripe
##Hip
##UwU
##Send
Chernobyl
iego
##vocal
##resuelve
##inclusión
came
##fumo
##cambié
##necesarias
##🤢🤢
liber
##Descu
anca
##AFP
##discursos
His
##hij
##copias
danos
enten
##enton
##frutas
##burbuja
##entretenido
##TRES
##Mérida
##98
tet
##MARA
##usamos
##mejorando
##atrevida
##grax
##Encan
37
pil
##contaba
😄😄
mpo
##👁
##Vzla
##Escucha
##Pit
##ext
##DALE
##pola
##coreo
##virgo
érate
##vegano
##Robin
abé
##von
##negando
##mantienen
##Yan
##Perro
##sm
##city
UM
##forman
##Park
##amargo
##debates
hacer
##NOOOO
ZOS
##perf
##masivo
##lograron
EO
##Ul
##mostrado
##cacha
##compens
tinson
##dizque
##realista
##🏟
ñon
##abrí
##menú
verse
##junior
95
##VIENE
##Vea
##jos
##diam
##creadores
##juli
##egres
##sinceridad
##Link
##regale
##crecido
##wi
##Mana
##lici
##cínico
cás
##aha
##resi
##llamamos
##행복
##Estáis
##ayuden
##Zamora
##utilizado
##militantes
ótico
##haters
##reparto
##encontre
##depi
##veia
terrán
##PRIAN
##robot
👇🏼
##sn
##Premier
##pedó
##atiende
##alegria
##comparten
##vaci
tándole
bren
##dero
##vuela
##ponete
##ordenar
##Anto
##chif
##HOMBRE
##acusar
##vestida
##sexto
ermo
##fire
##poesía
##conducta
##desacuerdo
ññ
##TOTAL
##ranking
##Jalo
##ámbito
tyle
##Lula
izadas
vídate
##desaf
##SEMANA
##FUN
hoo
##AMIGOS
##numeros
GL
##여러분
##doloroso
##atencion
##elemento
##Venezolanos
##202
dicas
##liberalismo
pois
##Show
##alfajor
##apoyos
ptura
##Raptors
##fallado
##plantear
##ENTEN
##action
🤘🏻
##Zi
parece
##respete
áez
cker
##americano
##selfie
##sutil
##Octubre
olvidable
##comprobado
oluca
##Cuales
##estro
##Stalin
##afirmó
##protestas
íe
##GAR
##retrasado
oO
##bc
micas
##subas
##orgas
fon
##LEY
Nosotros
##💥|
##practica
##situacion
##pot
##medico
##tomaba
##celeste
##cese
cridad
##Jimmy
##malpar
##perdemos
RAEconsultas
mitir
##Poca
##RECI
##stre
pad
vre
##cuna
##huev
são
##gringo
##Contigo
##recordamos
##dejarte
##hipócritas
****
##Marx
##explicó
##mand
##saludable
##fieles
💃🏻
##bruta
##exclu
##MIA
##oscura
##piezas
##suspendido
##sombrero
DinámicasSexoxas
##enven
##CNE
##urgencias
##insultan
MU
sie
##echen
##redacción
##quejándose
##revolucion
##votas
##África
##agresivo
##vita
giados
olin
.!!
##Regal
##tbm
##demagogia
##Steve
##problem
##protege
##Oy
##fascina
##aplaudir
##borrachos
##asume
##whisky
##tomaste
Felicidades
##chorra
anks
##Durant
##Fernanda
##evitarlo
##dificulta
aco
##cortó
##Caball
##disney
##Burgos
##CRI
##això
##jerar
estu
##gur
##rinde
##comerse
##kkkkk
##VIVA
tornelli
##Borra
##descaro
ñito
##sacarlo
##estudias
##perras
stitucional
íes
##pelean
##trampas
##AAAAAAAAAA
bero
##futu
##57
##ql
##borró
también
##llevarlo
##reservas
##pasajeros
##compañer
##parecida
##cun
##Prueba
##Regres
##preocupan
##CASI
##decida
##autonóm
cén
##mios
##sure
##Thrones
##Exper
##merecer
##pidi
##Ayuso
##comparado
##Argentinos
gobierno
##razonamiento
##grandeza
órmate
##pechos
íficamente
##:-)
decir
biles
##JAJAJJA
##morning
##trág
##fotito
##tiraron
)?
arela
bilizar
##satisfacción
##averiguar
##busquen
itis
##Conferencia
소년단
##Scaloni
##sombras
ficación
##Já
##aq
tético
##72
##AHÍ
##Revis
##custo
##logre
##habeis
방탄소년단
##manio
##cadáver
##nómina
##foco
##Gareca
##confunde
frú
##acta
##Conven
##enojes
##mercados
##CRIS
##Republ
##jajajajajja
PBTS
##vacun
##Friends
##viajando
##reído
##sugerencia
nt
##Termina
##extrañe
##comigo
##procede
##desnu
##calienta
zil
FelizViernes
##Tucumán
##pasadas
##maje
##م
##tt
axaca
##pistas
vados
ambrano
##inventó
VEL
##paco
ED
##castillo
##SIGUE
##5%
##Salir
##Óscar
##ovarios
##spam
##quitas
##sumamente
##Raquel
##mejorado
Ur
ART
##Ea
##panel
##Leonardo
##Rena
##(2018
##socia
##enseñe
##Cabello
##legislatura
##📊
##Guido
##ultimos
##inspiración
👍🏼
jense
##PARECE
##trató
##animes
aceptable
##desaparece
##Jajajajajaa
##Aut
##sims
##Interior
##Nosotras
##66
##Fidel
##duermen
##sugar
##thing
##Barranquilla
##URSS
##salch
##tirada
thle
##acord
##mamas
##suene
què
##🤣🤣🤣🤣🤣🤣🤣
##Servicio
##IU
##chas
##egoísta
pris
##recomendable
##nú
FT
##conhe
##inspec
##francesa
##involuc
##emborra
##Concuerdo
##disfrutado
##bs
##afecto
?:
##tardó
##genocida
too
##53
##xenó
##SUB
##critico
patri
##obstante
##Air
##negociando
fre
kitic
americana
##hermanita
KKK
TC
lón
ooos
##curiosa
##MACRI
##LITERAL
esos
##aflo
##manip
ROR
🤤🤤🤤
##precar
polis
##tuitera
##pudieran
ango
ALIDAD
##Biblia
##auténtico
##convivencia
ficit
##desgas
##instal
##Sant
##primeira
##auténtica
##chingados
✊🏻
##misóg
##currar
##madura
ÍN
##CUAN
##Sirenita
##Curioso
##pobrecito
##Juntos
##superioridad
tean
##toi
##nice
##Guz
##garantiza
Porqué
##derech
##Querétaro
vedra
##Carre
##videojuego
##eee
##pisos
##ingeniería
##planeado
##primavera
##Lamentamos
##7-
##caño
##Fabio
BTSARMY
##comuna
##oculta
##adju
Seguimos
##portátil
GOS
PUES
##estric
##TAMBIEN
##🚀
##sép
##acredi
##compli
##creerlo
##paramilitar
##CUMPLEA
##🤝
chata
zuela
##Fijate
##miedos
##destina
##feriado
MD
##🇬
Achaga
##ajaja
##impre
##estais
KAKA
##aceptó
kipedia
##cantan
##85
strucción
##Valentina
##lit
##revan
##futura
##asamblea
##loro
##Pón
blema
##Premio
##defici
##ídolos
##buscarlo
##21.
##Curry
##honra
##quédate
.*
##ef
##CHU
##trapo
##gatitos
dipu
##proclam
##BR
##India
cionistas
43
Esa
##dramas
hola
##vendrán
TUAL
##mugr
##Conce
##dispuesta
##secretaria
##DEBE
##Rubi
##entiendas
##Nac
lista
##apoyó
log
unales
##Recomen
##novedades
##equilibrio
98
ught
##cañón
🤔🤔🤔
##flow
##gratuita
##LOCO
##comenté
##enormes
jones
##unido
##venas
##móviles
##trompadas
##cagadas
##detiene
##Mexicanos
##permitió
##cuero
##Eli
##invitada
##bah
##objetos
##imprescin
Bet
##criticas
##acercarse
##fotitos
##ajajajaja
😍😘
##heavy
##patriarcado
tly
##where
##😠😠
essa
##giles
FelizDomingo
##Ups
mérica
##choto
##regen
URGENTE
##Programa
##abusa
##sujeta
##llorado
오늘
ñoz
PERO
##weona
##🇫🇷
##dani
##Adelante
##Respecto
##Argentino
##ina
jarme
chester
##fichas
##nefasta
##days
##participando
ferente
AchagaTrendy
##autocrítica
##sensibilidad
nnnn
##Dem
chuga
##alternativas
puede
##Fuerzas
##almorzar
##quilombo
##Horrible
##churros
##🗳
##anciano
##lentejas
##extranjera
😂🤣
##Mín
##oto
GER
chel
##guiso
##rezar
##aprenda
##educativo
##Democracia
##pozo
##entidad
uren
##pausa
sic
##:,
ALIZA
tribuir
##Home
##Tenia
##salís
##platic
##monitor
##perdedor
KW
##15,
didato
##colaborar
##uribistas
ION
##Stu
##bikini
##yogu
distas
##diganme
##FUCK
##Grey
##dou
All
##Cabal
##trascen
##als
##grieta
##perfor
##TWITTER
cat
##Hombres
##cinturón
normales
##apagar
##mancha
##Velasco
##Der
##HIJA
AMO
##Joan
Sábado
##desigualdad
##AAA
##modificar
##frecuencia
##tún
##Sky
##ini
##sug
##huir
##enseñando
bron
##rou
##Veamos
iao
##traga
##cubano
##necesite
##económicas
bula
##RAE
##trabal
##cuentes
##miercoles
CF
glia
SSSSS
##Im
ginia
##aterri
##Europeo
##dark
##canti
##cinta
##franqui
##fallando
##⏰
##españolas
##trabajaba
Vol
##2007
##place
##demócratas
CHI
daje
##weones
##sucursal
##menciones
toshop
##later
##agarran
amp
##SUE
##Pais
##😂❤
usion
##pensáis
##defienda
##DEP
ᅠᅠ
##$1
##pasao
##deposi
MEBOL
##GANAR
##Vázquez
##adelanto
Star
ésame
##hablarme
##podrido
tingencia
##Lec
##closet
##comete
##préstamo
##Ame
##necesit
##Tenéis
##estabamos
##amigaa
##pisar
##plane
tifique
##incondicional
##sic
##sufro
##parlamentaria
só
##Pato
##trin
##primi
##gestos
##materiales
Juan
##lomo
pela
##fijas
##humedad
##maquina
##justificación
##Cate
##escrita
##jueguen
##gamer
econ
##poc
##azar
##ole
##Ganas
##tardan
##Grecia
##adaptación
##Llegué
##pillas
##Guadalupe
##Completamente
##deser
##Psoe
##Arthur
##Temporada
##estuvieran
##main
##VECES
##atr
##bárbaro
fianza
##Holaaa
##razonable
##comandante
##"...
Jes
zer
##perfe
##Miranda
##secreta
##incendio
##avergon
##baratos
##chorizo
##escribiste
##PT
##épico
##devuelve
uitos
##dieran
##vacunas
4)
##Bebé
diario
##romántica
sió
##chupo
##agresiva
##ADE
##AGU
##preciosos
300
bera
suales
##juntan
##mandaste
##💻
leep
##elef
##VENEZUELA
##trolo
😀😀
##PALA
##Benito
##represión
##opos
jale
##choca
ming
##Armani
guis
úsica
##metá
##alergia
##avanzando
Coo
##140
cones
donna
##normalidad
Barcelona
Algún
##huesos
##aplauso
##4)
##demen
##dedicó
##restric
##Chup
##sostener
CRA
##IV
##coreano
##electrónico
##dañar
##QUEE
caca
##heart
##estrena
##GIF
tisimo
##ric
CLUSI
##madrugar
##Vive
##ganso
##By
GADO
##Marlaska
##sobrevalorado
##ára
erveza
ier
##MAMES
##chupe
##contarles
##RM
Años
##900
##kara
##clasificación
CEN
##Mirad
##recortes
##Dele
##Polo
##Estre
##canas
##consentimiento
##Necesitas
Están
asterio
##Thelma
##coordina
##부산
##stand
mbro
##bajaron
##incomoda
##⚪
##2°
##multas
PAN
##Afi
##són
##Barrio
##Julian
##cuadros
##Universi
alas
ucristo
##hacerles
##estadística
##🐯
##liado
##dichos
èn
##decido
ficiencia
##competitivo
##nacionalistas
##Pase
##Vino
##guapas
##Fuente
##toques
##Sistema
##american
##refinería
##nop
osamente
##ajs
##Hones
##rescatar
twife
##avisan
##Prepar
##Aristemo
ásico
héro
##temer
##plancha
##estraté
##compraron
blado
##Jean
ZZ
aquin
##farsa
##retos
##Levan
##tengáis
##depos
##ensay
##💆
##Avan
##despacio
##EMO
ensas
tacion
##escuchaste
##observando
##pai
##Chico
##secu
##palacio
##argumentar
...!!
##cuido
##aburrimiento
Cs
FIN
##inmediata
##Maca
Ese
##balas
##codo
##TERMIN
##entrevis
##cancelado
##president
##élite
##apoyas
##judi
##incidencia
side
Trump
##cortan
##pessoas
##tribuna
##Sou
##tronco
##escriban
##asustado
uts
TERO
##desvi
##lealtad
##2018,
##alcanzó
##DEMASIADO
##Oviedo
##anunciado
Gen
##Buff
##QUIÉN
##estándar
DIC
##ordenes
Familia
##retroce
##its
##empiezas
##valle
##tesoro
##Pregúntale
##manteniendo
##mediocridad
##abraz
##criti
##firmo
americano
##atrevido
셔서
##Haití
##Aw
edor
##Key
##rama
amarca
##Golden
Pel
##inser
##ponele
FICA
roga
##bigote
##pirata
/12
##tomada
##tacones
##Mega
Stranger
iculares
##cat
##desperdicio
##happen
##imparcial
iras
##asimi
##Walter
dus
##jajsja
KF
curo
sobre
##mago
##recontra
##celebramos
##awe
##Dura
##vence
##clásica
##TRAI
##bichos
##nevera
##masiva
##Informa
acán
##Sole
👌🏼
주셔서
##end
##jugadas
cillamente
tiana
prim
##Vet
##fua
FESTA
cesión
##nenas
##Niña
##sangu
##riesgos
Rey
##estarías
uado
##🥚
táculos
##coincidimos
down
elente
giones
##parlamentarios
##variar
gli
##aqu
ALL
##intr
##fraudes
##Belén
##cuñado
##competición
tial
fore
##almas
##asign
##envié
##match
##astr
##JD
##MUCHAS
##Tottenham
##FLA
##Orden
##autores
##bares
##bono
##cami
##pareciendo
##parano
##neutral
##adolescencia
guemos
##psicóloga
##expresiones
##defendió
##ROMP
##venían
##✋
##Sony
##garant
##consultas
vita
##mueran
##afr
##encuentres
Miércoles
##Queridos
##clasifica
😩😩
##ndeah
MiVoto
##cueste
##1%
##😭❤
popular
##chavala
##atractivo
##Irán
##dog
##alca
coa
##3-0
##tuu
##Movi
##Ostras
##Jajajajajja
##leña
##moción
##fichado
##terraza
##adivinen
##SIENTO
##eramos
HHHHHHHH
Tetas
##quan
##serp
##patrocin
##alea
##quisieran
##wha
eero
##decre
##herido
##marcador
##camila
##😔😔😔
##reprodu
##🎶🎶
##Fabi
##insultado
##rojas
DDDDDDDD
##Okay
##ríen
##fantasmas
##CUMPLEAÑOS
##sonó
##compartido
##secundario
##Celta
asu
##Vega
##viviendas
##habilidades
##adivina
##fruto
##pasados
casi
valo
Bienvenido
UDO
##someone
##valencia
##fortaleza
##Cál
##Hue
##Vou
##lice
##inquie
##maravillas
##turbio
##ÉL
dies
##Ysi
##AAAAAA
2)
KM
ixa
chame
##📷
##PAC
##MESSI
##fresa
##cuotas
MTVLAKPOPBTS
##🍊
##rompieron
DEZ
##dd
RIBLE
##Ganó
##quejando
##Rodriguez
Guar
##jabón
##MENTIRA
##disciplina
##estadounidense
##Unido
##colas
##lamer
##Acho
##nojo
##eche
##CREER
hahahaha
##dolores
##cs
##week
##maximo
##restable
##verduras
##jubilados
##Avengers
##nombrado
iu
##serías
##Latina
##dejara
##PREGUNTA
##dirigencia
BB
##financiar
##explicarle
##poh
##PORFA
##Whatsapp
##atrae
##matas
##Fri
##twite
##Cultura
##productor
hes
jjj
##JURO
##Cancún
##anécdota
##bate
VAL
##Cine
##Decile
##gobernando
##😂😂😂😂😂😂😂😂😂😂😂😂😂😂
##evita
##Posible
nny
rase
##lobby
##birthday
##Queres
##transparente
##sostiene
##conductores
LÁ
dk
URO
##verbo
##arranco
##anticoncep
##Nis
##uruguayo
##facho
PARA
##Haces
##tergi
##juguete
##Martinez
오늘의
##moro
##send
##hazme
##cabida
##sun
##frito
##infraestructura
##dsp
##Mini
78
wl
fando
Luz
##magnitud
##Apo
##2001
##DEJAR
##Disculpen
##continente
##perío
##snap
##derru
##niegan
##protagonistas
##hacete
Supervivientes
##lenguas
##ambición
##exclusivamente
##Off
##coso
##54
tiste
##pertenecer
##TRO
tiempo
##honestos
##🌙
##air
uestos
##tiren
##ejercicios
##Beso
##compatri
cine
##Girl
izaron
HP
VII
##acomple
##IMPORTANTE
tís
##Naruto
##monopol
##mentirosos
FORMA
##twits
##consume
##CIN
##haria
##respetable
##semifinales
oleta
##rosas
tacular
##corrupcion
##rayo
##transpor
gall
##claridad
##apellidos
##cabra
##reforzar
##terminal
##delanteros
##case
##óp
##Fes
##coloca
##mitin
##Desper
##cubier
##sillas
Tui
##vag
##prem
##Resul
##agran
##síndrome
##militante
RankingEnter
##jajajajajajajaj
zing
ueven
##cocaína
##CTM
##testa
##vereda
beria
TierraDe
##Humanos
##comentó
##inconsciente
##Agüero
éndonos
##Hernán
##cuidad
##operar
##presupuestos
Mx
delidad
##pudieras
##uniformes
##그
uls
##Ví
##chida
##👻
##programación
ianos
viera
##CAMPAÑA
##amorcito
##President
##afectados
##Suda
##genu
##ponerla
##manifestaciones
##Cita
##ELLOS
##alivio
##Hea
sitos
##gritan
##🚨🚨
inbaum
##perca
##cagaste
##GOBIERNO
tanza
##Jordan
##integral
##ÚLTIMO
##honesta
##contraseña
##quejes
?!!
##Bartomeu
calipsis
##hacías
df
ARE
##Kenia
##Steph
##gordita
##iglesias
................
Trans
rismo
menterio
Lea
jería
##renunció
##xenofobia
##1.000
##probarlo
##protagonismo
##sense
##imposición
Mus
##bran
##mimi
##conveniente
amanca
ándolos
##superó
##destruc
##pesadillas
##claves
##Caro
##judíos
##revisa
##thanks
##Zambrano
Tar
Peru
##INE
##vín
##tanque
##👏🏻👏🏻👏🏻👏🏻
##Aguas
##convicción
##industrial
##hú
##Matt
##Fuiste
##desbor
##descere
##year
##Endgame
##rodeado
ampa
##apodera
##coincidir
##halla
##doblaje
##IDE
에이티즈
##miga
##precisa
##🚗
##pt
mbres
##estudie
##interesados
Sabemos
##Bieber
##costumb
ñones
##Ríos
##suspende
##😙
moso
emble
##poste
##vivan
##alimentar
##FOL
##pique
cionan
##motiv
BuenosDías
melada
##CV
##LOVE
##lema
##lluvias
zilla
##peri
CopaAmérica
##📰
##generalizar
vismo
##creció
##estuviese
##vegana
##matemática
kar
##Cortes
##Marcel
##tendencias
JAJAJAJAJAJAJAJ
##Gam
##Clara
##ingleses
hum
LADO
##ajenas
##espiri
##jajjaja
##Miki
##calientes
##GS
##oigan
##tocas
##coming
Tri
##patin
##cuídate
##votaciones
Ban
##farc
##indo
##suenan
bería
##Lora
éminis
erentes
EEUU
otra
##pedia
##CIU
##cajón
##recic
##mamo
##amorosa
##gestionar
core
##MUER
##cosplay
##ato
##Sign
entonces
##duermes
##separación
##nana
##muerde
##Economía
##múltiples
##contro
##selva
##electo
##croquetas
##Saba
##estor
##floja
##indepe
##solitario
ILL
riz
##Mach
##SALE
TierraDeNadie
##traten
##dada
##Muñoz
##brome
##golazo
##bebiendo
##sentirte
##fronteras
oke
##Ladr
porting
##Quedan
##Ira
##teu
##tratas
##parlamento
###6
##hj
##uses
##American
##CONMEBOL
##country
##email
TOO
##áreas
##Diablo
##intendente
##tp
##Vivir
##tilde
##Pedazo
##carlos
##Publ
##mutuo
##cadenas
##lp
##palma
but
##Glor
Aunque
##semen
##Acepto
##habian
##room
##máster
##cirugía
##Liz
##guardias
##títere
##hablaron
##indefendible
##acondicionado
##Inici
##agobi
trac
##mediodía
CHES
오늘의방탄
##existencial
cela
##Khe
##então
##estamp
usura
##Disc
##ning
##articulo
##disculpar
##facilidad
##inac
##sintonía
##Teo
##podí
##ligera
##Acab
bot
##trio
pejo
##Rufi
##educada
##bby
pur
xis
##guerras
##seguis
##¿¿¿
##AQUI
##callas
##adelantado
##Ball
##Bron
##Peñalosa
Via
##😍😘
##Casta
##ampliar
##reducción
ao
rosoft
##Vieja
diante
##éstas
##ciegos
asy
##Europea
##entramos
##mentalmente
##어
##Elecciones
##69
##Abel
##disque
##pagarle
rina
##Vla
##hur
ecable
##Doble
😁😁😁
nnnnn
##these
erito
##cambies
##saliera
##aprendiza
##😀😀
ieve
##expro
##diar
##calif
##공연
##diploma
##안
##🐀
하고
##KKKKKK
##estufa
##cuestionar
ICAS
##Epa
##aku
MBA
##wil
##Moyano
으로
##Gabriela
nadie
##limitado
att
##Datos
##Louis
##MANO
##Amen
gne
##llevarme
MBIA
Seduc
##integ
##nomin
##brilla
##Extremadura
##Rel
Mundo
ducto
##racha
##juicios
serie
##suicida
Den
##99%
ficado
##Mbappé
##adminis
quet
##Moro
##Margarita
idora
##Fortnite
érrez
##ensayo
Ale
Mañana
##Shawn
##diaria
##🐺
galo
TIVA
##Gary
##tías
##Fotos
##NOCHE
##cordo
##Ras
##tramo
ándoles
##escritorio
##Karen
##Cuarta
iches
Op
##vendieron
##🌷
you
##soc
##sabroso
##Pena
##detuvo
##TS
##AUN
##anón
##Corrup
##diálogos
##atracción
DIDO
##Abril
##doing
##vasco
##Alicia
zzzz
##HIZO
##Pfff
##Bolivar
##20,
##Blas
rlando
##acababa
##Millones
##entregado
##correos
##😝😝
##trap
Puedes
##Holaaaa
##enfoque
bida
##Vivimos
##vigente
##subvenciones
##fica
##asies
##soltando
##empezaste
##Prepara
##🍺
##try
##FUERA
##populares
.–
ERRA
##profundidad
##Selec
##PRIMER
##bachillerato
##Honor
iendose
##Perfec
##salvado
##treinta
':
AT
##déficit
Ella
toda
view
##Rob
Juego
KSKS
##irrelevante
##‹
##dt
##agü
##Quédate
dicado
##MÉXICO
##odiaba
##putada
##podrida
##Funes
gario
##Thanks
##Descono
##aprenden
##POCO
##sufri
##homofó
400
RUPO
##GOR
##Hala
iiiiii
##consecu
##equivocó
##variedad
rlanda
##eligen
##Toni
##urban
##importaba
##corbata
##afortunado
##bea
neo
##Pasó
tisima
##adulta
##piedad
vete
##Fed
##PONER
##superan
##telefono
##calificar
##estética
##recupere
comun
##Cues
##señaló
##Salva
##Cuesta
)...
##Chelo
FES
##Ado
##Pido
##vital
##Tio
:15
dín
ray
utos
##IGNOR
##crudo
##directivos
right
##Bebe
##Mami
##críticos
picos
##ticket
##llames
##LIBER
##acostumbrada
##kirchnerista
##votada
##generos
Ren
##58
##devo
##cansé
##Chicas
##PERFEC
💪🏽
##TEMP
##desean
toriales
##descarado
##Eze
Social
monia
##Discre
##MATAR
##espany
bab
samente
Tig
##describe
##baloncesto
##Vengan
##Olimpia
certi
glish
##adivinar
MINA
##Alfred
##Hoseok
##cruza
##perdone
##retorno
##queríamos
##apps
##head
##regiones
##pronunciar
jajajajja
##Navarro
DC
##coja
##separatistas
##”
##desmen
##olvidaba
##Confirmado
##estaríamos
abro
janos
##Jonas
##ESTADO
##berrin
##independientes
flex
##paella
##saques
##micrófono
Mir
tain
##Win
##twee
##espantos
kira
##roman
##Danilo
rú
##Jur
##actuaciones
##Vení
##fico
tarismo
?????????
gí
##prenda
##sentís
##esperaban
##With
##piercing
##JAJAJJAJA
Amb
Sen
##VISTE
##nick
##hígado
téis
##Celso
##aguantas
##notificación
##antis
##Animal
##agrado
##relaja
##equivocar
##gerente
##🇸
velo
600
TITU
##Please
ize
##metía
##flamen
##costaba
##mafiosos
’,
##potente
##comprarlo
wor
##iphone
##establecer
##Vai
##Dormir
##Seamos
##busqué
escri
##falando
##friki
##impulso
##NOSO
##sinceros
##litro
##casarse
mierda
##alimento
##PARTIDO
##historial
PRO
nam
ceros
##gosto
será
Things
##retar
##VERGÜENZA
##mantuvo
##macrista
##pretender
##Agosto
##computadora
##creatividad
##CAGO
##Crea
##Frida
##tarifa
ADA
🔥🔥🔥🔥
##acabará
##Querés
##frutos
##paró
##mercan
##confirmación
##Voc
##publicas
##vicepresiden
PUTA
##64
##violentos
##Pemex
##limon
Directo
##poderosa
💕💕💕
##deus
##flipar
##esperes
##caballeros
##Zelda
##psiquiatra
##sip
##Espin
##escar
##Aqu
párate
##Mexicano
##antiguos
##Aragón
##Pamplona
tién
##Arsenal
yal
##rincón
##entretenida
##sang
guenos
##conflictos
garte
##prohíbe
##convocar
##imperial
wan
##💚💚
##Carr
##THIS
##Tuvo
##ogt
##deportistas
ced
jiste
##regi
Ala
##68
##muestre
##incidente
##Your
##rodea
jq
##métodos
##obsesion
##intentaré
egal
ffin
ibilidad
##ridículos
##considerando
ote
##producen
##Cama
##Arena
##lleves
##Secretaría
##excelentes
##Cat
##Uni
##acum
##cocino
##indignada
##FELICIDADES
##FAMIL
etta
##brom
##bancada
##libremente
##pé
##opine
##milagros
##Vs
rear
##bebidas
##confesar
##estuvieras
##explotación
1%
##Emilia
##consigues
ienten
##Rubio
##rebelde
##Diría
##cracks
39
##ome
press
##goals
##ecuatoriano
##duo
##ganancias
##opa
icamos
##rompa
##HAGO
##delic
##Paredes
TION
##escalo
##aprovecho
tarla
##Pese
##Florencia
emo
##arreba
##brown
##Vero
traba
hhhhhh
cus
##habré
,.
ingas
##subli
##Mínimo
##flipas
##lom
##méritos
kn
master
##eviden
##delicado
##dirías
##Awwww
##guiño
##confía
😹😹
GAL
ário
ólito
##ator
##Maraca
##desmon
##Gutiérrez
:45
##RIGH
CADO
##Call
TAMENTE
##organismo
campo
##HABLAR
##andaluz
💓💓
daria
clusión
##volviste
ond
##👏🏼
jajajajaa
##마
iness
##indu
##고마워요
##agujero
##saludarte
##oxí
poldo
##inmo
##quedara
##jas
##militancia
ucho
##domés
##experta
##........
##supremo
UA
##matu
##Patr
##suspendieron
IAL
meras
##guarde
GEL
istir
##🌎
##patear
##escondido
!!,
Lleva
##rutas
cioli
##deportista
##Batet
##afortunada
##combina
charse
##Descar
##pollas
##divis
##surreal
Tele
##entraba
##MILLONES
##solía
##Volvió
##Diaz
##adel
Pon
##prende
##oir
seros
uelva
##click
##jodes
##rating
##fuesen
rense
##terribles
##EUA
##other
##quee
##😷
##culera
##formado
##turistas
##HACEN
##Pompeo
MiercolesDeC
##@/
cenas
##armando
##taehyung
♡♡
##Jr
guitos
##picada
##válida
##PF
patas
##exagerada
##solicita
cuta
lero
##Lucifer
##suscrip
##caldo
thletic
##deberá
##índice
##evang
##déjalo
##sonaba
vich
##PAP
##kin
##retomar
##:’
##Llevamos
##intentos
##especialista
##placas
##barriga
##bloquean
##extraordinario
##sacaba
?....
##INCRE
##quiebra
##afectado
##dragones
##pendejas
ATEEZ
##2024
##Apre
##Pésimo
##Presidenta
##infantiles
##lidiar
##adoctrin
##Normalmente
lló
##Guay
##Bienvenidos
minas
##vaga
##nadar
ÚLTIMAHORA
zano
##millonaria
##extraordinaria
vani
##acepte
Algo
##aka
##chao
##geni
##Coruña
##aberra
##aventuras
##implementar
##Código
IDA
##HERMAN
##mágica
##chingón
##vendan
##vendedor
##Monasterio
##role
dric
guilla
##detras
##Charles
##brillar
##Guayaquil
✌🏼
##two
##nuestr
##siiiii
##Maravilloso
##Larreta
##Alejandra
##corazoncito
contra
##Dead
##nono
##villano
##integrar
##excepciones
##hehe
##transmite
grafo
##Nivel
##trab
##playoff
tualmente
##Tb
##bobos
##madrina
lete
ries
##jan
yyyyy
##Retw
##monumento
##Ésta
##pajas
##colgado
ddd
ÍCU
##Vota
##Celia
##Pattinson
ñigo
##dolar
##diablos
##vistima
##Marchena
##COPA
##PQ
##(1)
##Momento
##aleja
##fachos
##Revolución
##Live
##sole
##Benja
##dupla
##yaaaa
JuevesDe
##Corazón
OLU
##fut
##CLAS
##armó
##ofensa
##❗
##spa
##preventiva
Ima
##irnos
BTSFESTA
##procedimiento
DON
##Emo
##adecuada
##aje
##Cuántas
ania
##boom
##mueras
##Administra
FS
##Els
##point
##convivir
##sinvergüenzas
Ben
TVE
##marque
vios
##disimular
💖💖💖💖
##reten
##gastan
##calentar
apa
##creyó
##dejad
##recuerdes
orrow
##ng
##money
##homofo
##Último
##nacionalista
##Aitana
##mido
##Banda
##esencial
##2020,
##mamón
##pedidos
##queráis
##cica
çar
##dejaban
##División
late
dalena
##intolerantes
68
ínense
##clarito
##88
Saben
##Madri
##cómic
##Ternera
##repiten
##faltando
Último
##rango
##confundas
##fallecimiento
##tocará
uuuuuu
##recoge
##discute
##generalmente
##justificando
Vic
##teme
flores
##horizon
seras
##short
##suceda
BIR
##Amlo
##Bernabé
##🏀
##160
ward
##Isi
##aprendió
##conformar
##clarísimo
##🥇
##mezclar
##miso
##zan
##alinea
##legalmente
##Wars
##alimentación
alapa
##Josu
##Varios
##participantes
##extremadamente
##gesti
##preciosas
##saldría
##bota
##bander
##chup
##admito
##Estimada
##avanzado
##olvidaste
##cuánta
##chances
##neurona
icaron
##ilumina
##empezaba
##preocupados
##admite
##chantaje
##parecería
##Pense
##Europe
erna
##Kat
##Bruce
##albor
##lavan
##yg
##tales
##Vergon
##Dev
##opositor
##💪💪💪
##Aaah
donado
##bendito
boa
##teng
##transformar
##ms
##esfuer
##informó
##advir
##nec
##decidi
##videoclip
##😊😊😊
##Nope
##paraguas
giado
##moviendo
☕☕
icius
##bull
##lingü
sia
##PUS
##engen
##Carapaz
##Mensaje
##Breaking
##ponían
##rancio
##intelectuales
##remix
##maldición
ilando
##existan
##Generalitat
##🇩
aros
##abiertamente
##Acuerdo
##supuestos
##franquismo
##estudian
##bloquearon
##jajajajajaa
burgo
pí
MER
##sele
##Alguno
##comedor
iapas
##cogió
##penita
Cooperativa
##ofenden
##asada
##menta
##equivalente
FG
##Gian
##Autor
##Marca
cionismo
##Fon
##dedicas
##ladri
##hablaban
##invasión
##legítimo
##quitarse
##demócrata
##cay
##Duro
##afan
##Michelle
##trajeron
##extinción
tist
##cupo
##Ferrari
😝😝
celo
##mueres
##deseamos
zzo
##Alber
##LLAMA
##empanada
##desarrolla
##Tó
##dich
##distor
##04
##copy
##dispuestos
##OC
##CEL
##Serie
teres
##dont
##mudo
##ombli
##neo
##beta
##maquil
##disminu
##forever
##excl
##Parce
##tenerlos
##repetición
##incluida
ml
##BRA
centro
##cursi
.000.000
##pasarla
##2-1
arlos
ciela
##Nego
##pasivo
##quieroo
##golpista
##denuncian
##Público
##castigar
uh
##abordar
##sop
##🥰🥰🥰
##mugre
Gu
Bus
##Leer
##circula
JW
##jose
tanasia
##Ingeni
##pezones
##tatuar
##patrocina
##Ré
medi
itado
##llevaban
##kim
Salud
Fuerza
ológicas
##victimi
arca
##agredir
##Mata
##Feria
##Jugar
1)
fla
##WOW
##oigo
##Human
##discuto
##ventajas
##maravillosos
ductoras
##victorias
##servidores
##CÁ
##chivas
##cambiaste
##Manchester
##Bell
##peluche
##teléfonos
##extrañamos
àn
##Almería
##Hacemos
##desapareció
##madurez
##Maya
##Cortés
##Cc
##parche
##inversiones
##60%
ência
##Pulido
##tonela
##presidenciales
##cutre
##descuen
##NACIONAL
##gobernante
##ARRI
##chofer
Conexión
##roben
##básicos
##envidio
##Imagin
##realizan
##reparti
SSSS
INIÓN
##mantenido
##dans
##JAJAJAJAJJA
Bron
##bomberos
##ABC
##Conf
##lamb
##MORIR
##obligan
untamientos
##suc
lyn
##KS
##pós
##WHAT
##VOTEN
##dragon
##entrenadores
ñita
##avise
##informacion
😤😤
##95
##Sim
##joden
##Resumen
##laboratorio
Juntos
éndola
##Andas
timosamente
##asta
##TRANS
##mayonesa
charme
##juntada
##probando
##decidieron
##Otamendi
TRAR
##Ei
##tag
##volve
##oq
##bubu
##andro
##juntarnos
.!!!
##Brutal
##fingir
.~
##FP
uimos
##descanse
##armada
##recomiendas
##cd
enials
##grupito
Santa
##ladron
##sorprendente
Lolla
##👏👏👏👏👏
##calcetines
##dea
##juzga
##robos
Luna
##Acor
##ACUERDO
##ESOS
##empezo
##juvenil
Cuántas
##criticó
##amada
##Estaré
##silencia
FL
##cou
##aaaaa
👊🏻
##Bis
##difam
##sonora
##descubre
##expulsar
##coh
ange
wwww
##Apla
##publican
##éso
Catal
##Tren
fano
drito
##cachor
cala
##(...)
##acabé
##pronta
##dirigida
##mismísimo
##mass
##aprendes
##AMOOO
##great
##conj
##USD
tubey
##escalera
##PNV
##SIG
##tii
##??????
##enseñanza
##Nas
##impa
##magistrados
luen
##Hm
DADO
MICA
##dead
##PUEDEN
##provida
##intentas
##SHO
##Pancho
##bombon
##Bárbara
iley
##inhu
##Diario
##especies
##conlle
##Madonna
##Lázaro
##MENTIR
##Personalmente
##Emma
##cubre
cú
##afectar
##hectá
##mirad
##ordenó
##Todavia
##recorda
##promueve
##ineptos
##Yas
##papu
##desesperado
##hope
##chapa
##repen
ligente
##mueven
##llamarse
##76
##pegada
##Periodista
##ord
Pueblo
##canciller
##conservador
##Ún
##Iceta
##PARTI
onazo
##Abre
terres
##2015,
##comet
##extras
FFFF
##pab
##Gener
##idiotez
##masacre
##Stornelli
diosa
ualmente
##amenazar
##""
##correa
##marico
##vieras
##comienzan
seguro
##jen
##verdade
ned
Seguro
##terminen
##veganos
##comenzaron
##economista
Cambi
##mafias
##GANAS
##Prime
jdjd
##capas
##caigan
##calzon
##farmacia
##ayyy
##modern
##dri
##mii
##POBRE
##aceptas
##inmenso
##jugos
##tempor
##Lé
chenique
##celebran
##debieron
##aguantando
##popularidad
##DIO
chira
##conectar
aquí
ISIMO
##refri
##generado
##hubieses
##recibimos
##agradecemos
dge
Queremos
##perfectos
##sumando
##musicales
##peruana
##pass
##Pinches
##GN
##🇮🇹
moslo
##Cesar
##🤣🤣🤣🤣🤣🤣🤣🤣🤣🤣🤣🤣
dur
##FUER
##22.
amiliar
##gobiernan
##definitivo
##apri
##pino
##Silen
##aguantan
ções
##buzo
##desd
##festeja
##regalando
##equis
##capacidades
cano
##shows
culando
##Diosdado
Noche
##evaluación
##arg
##nico
ustedes
##queeee
##delantera
##vous
##llamados
EEEEEE
##Encontré
##fotógrafo
##incompren
##ken
inaldo
##Excel
##americanos
Sh
##Gü
Mayo
##Murió
##azucar
##portavoz
##necesitando
Cat
##Rial
##Niños
##asesores
##pf
##🇺🇾
##40%
elito
##superfici
Be
URS
Contigo
##bebita
Vas
##pronuncia
##conocerlos
##IBA
##max
##clip
##deri
##estudié
##cuéntame
sino
##puño
##Personal
##suministro
##subnormales
Big
##jk
##CULO
érdate
rección
##levantas
##gust
##SPOILER
##Samsung
##estava
Calderon
##devuelvan
##psicópata
##discapacidad
##fibra
##Belgrano
##peliculas
arán
##Zona
##mediático
##CHILE
taban
##Nicole
##presentarse
##CUI
##pestañas
##gobernado
##JAJAJAJAJAA
##Cuánta
pelo
##carna
##baboso
Roja
##dobles
##내
##Trá
##obrero
##monstruos
##mamarracho
##Cán
##caba
JAN
##moderna
##Ina
##Hubiera
##kit
##CHIN
##Gato
##Loca
##construyendo
OOL
##LUZ
##culiado
##¿¡
##exam
##Nobel
##inval
##grosero
##logramos
##Miro
##perquè
##proximo
ñando
##obtuvo
##franquista
##Profe
Uno
##despren
##saldrán
##multimill
IÓN
jaste
##Crack
##maybe
##abe
iner
tazos
##Calvo
##PASAR
##paste
##enfermera
##✌🏼
comen
pacho
##jugarlo
##Española
##apariencia
edores
##Tendré
##llueva
##MIO
##gros
##mueca
##sabremos
##Dato
##sudor
##criticado
picas
##family
##perdio
xit
##😤😤
##pille
##cables
##lacras
##funcional
##Adam
Sabías
##paname
##lloras
ERNES
##Pinochet
##existido
nel
##SABER
##banana
##passar
##Escuela
##pasaban
ViernesDe
lal
##flan
##abundan
YAS
##2003
##Jajajajjaja
##기
ísticos
?:(
##SÓ
ssssss
##valía
##padrino
##mermelada
##generó
##contenidos
##accidentes
##BRU
##prohibición
cone
##descui
##prepotente
##repitiendo
##Huele
##shipp
##humillar
##amén
##mamad
##billetera
##Ricky
##Créeme
##desalo
##futuros
bete
##forra
##perri
##planea
Sta
anding
gether
##Macron
##Máximo
##Alicante
##auriculares
💘💘
##bolo
Au
vá
mación
##Persona
7%
Tor
##cy
##esoo
##Memor
##gonor
##etiquetar
éndez
##ingre
##cantado
JQ
##tradi
Nintendo
##Jejejeje
##sobrinos
ret
CNCO
itan
##Jess
##garo
Period
##errón
##esquema
##recolec
Tr
##They
##ᅳ
##Kra
##Albacete
py
##long
##INTEN
##maletas
##libertades
##Mood
##nude
oot
##😏😏😏
estan
##Semi
ignación
##chupando
##constancia
##curas
##Qatar
##86
##Rossi
##català
##caballos
##DL
##CABR
##navidad
##creencias
diosos
##prian
##PUEDES
##CULPA
##mecanismo
##naco
##centí
##house
##Tengan
gata
##PAZ
##echaba
##martin
##enseñas
##distribución
Habrá
jardo
##Navidad
##charlar
##comerci
##echamos
##pasajes
##estadios
##Fire
##justin
CHOS
##COMER
cci
##Pff
##caram
##chongo
tecas
##UEFA
##Hecho
##dejarla
rai
##zoo
##Deus
##Rakitic
##háblame
##pansexual
eños
##Deseo
mócra
##Mama
##declaro
ágil
##trimestre
##youtubers
PEN
##Cató
##lleváis
##195
##ilí
##Urge
##Lloro
##envia
##💩💩
tuto
##LADR
##Dejad
##desan
##Consulta
##toneladas
##Ayú
titui
##inclusivo
-2019
##depois
##cristianos
dece
##Tok
##PATR
##pedofilia
tóbal
##pulso
##sindicatos
##PEDO
##Polonia
##fenomen
##defectos
##Bello
##respetuoso
##quedaban
##inolvidable
eiro
##Reun
##London
##defendido
##노
##qie
##manzanas
TÉ
##peces
##Toluca
##genios
##fáciles
##comieron
##portugués
##costumbres
Ros
##aquest
##obligada
⭐⭐
ÍAN
##Gim
##yoo
##asumi
##eficiente
##02
##Nick
##Seeee
##limos
cible
##volvía
##Nuevamente
MiercolesDeCulos
##Supon
##Montes
##regalas
issa
##surge
##honestamente
##HABÍA
😬😬
tid
##Som
##impos
##pancho
##enloque
##Pide
##Empecé
##calenta
##2002
##ORGU
##desesperada
tórica
##lagrimas
quea
tento
##COSA
lywood
##cometió
##divierte
##comodidad
##recomendado
MIGO
indows
##Merca
##contaré
##heladera
icampe
túa
##edit
##Reeves
##🤬🤬
##leía
스트
##Oe
##pusimos
##spotify
##molan
##enamore
##indiscu
##Mica
izquierda
##celebrarlo
Igual
cacaf
##empece
##incoher
tc
##Comenten
##Escuchar
##actuando
vivencia
bina
filos
##ENTRA
##parrilla
jia
##ER
##curva
##careta
idra
mare
tuda
##USTED
##PAIS
##agon
##지
방탄생일
Quiénes
##procura
##comenzamos
##interpreta
dosa
##virtud
##NUESTRO
##impulsar
##EXO
##lam
##tun
##jale
##Carol
##outro
##Diablos
##Hur
##McDon
##ENTIENDO
##lamentamos
ume
GADA
##WORLD
##edificios
##Compra
Gal
##🤗🤗🤗
##vocab
##burlan
##Btw
##Ohh
##Joer
##abon
##saldo
##vivas
##Samuel
##heterosexuales
##macar
##déjate
##Actualización
##mear
##MUCHA
##veure
##4:
nado
##TEMA
##hoyo
##tmbn
##capricho
##🥺❤
##buro
KER
##folla
##Pikachu
##sacarse
DIR
dimir
06.
##saliva
##Blue
##cierro
##Marcela
##restaurantes
óso
##bailo
##sindicato
##jubilación
##Marín
ises
##aline
trero
##senado
##experimento
Gana
uelven
##calificación
##recordé
rico
##cría
##MEDIO
##insign
due
##morado
##Beto
##Quintana
##사진
##10.000
##change
##premium
##gaste
##cagu
##spot
##simpático
##`
voto
##semis
##pulmón
##quieto
##amiguis
##esclavo
##🎟
##cómics
##paisaje
##beautiful
night
##conservadores
gut
##ROS
##white
##asientos
##distinguir
zio
##Vettel
BEL
LATE
TADA
peso
##DIAS
##inesperado
##vé
##metemos
##ESPERA
👌👌
Kar
abor
##hacien
izos
##UU
##Date
##atacado
íces
##Sis
##kios
##aprendizaje
ween
##DESA
##usaron
##diarias
##coje
##ALGUN
##andes
??!
##avec
##olimp
##Bernabéu
..........
##Jesucristo
PSU
uess
##Reno
##lagar
##cuerpazo
##distrito
gráfico
##opinando
##robe
##EQUIPO
##sirena
##escuchen
##aparentemente
##porfis
##mandaba
##alza
##querría
##burlarse
##alt
##Venez
##conch
##viable
##desvel
##hundir
##Fujimori
Har
##Andres
##advierte
##PIB
##Jijiji
##clavar
cedente
##Acaban
entables
##productores
rión
##Otaku
##mosca
##sirvo
##cuñada
##merito
##faltaron
##Parlament
😻😻
##yy
##Afortunadamente
##jajajjaa
##probabilidad
##👏🏽
##pucha
##spider
Ce
##automo
##oportunista
##Ener
##logré
DeLos
LITO
BAL
queños
##declarado
##EXPL
🇺🇸
💛💚
VIN
mol
##viajo
##machos
##cafecito
##requisito
TVES
##fresca
##aportes
ICAR
##occi
##tendri
##dificultades
trante
##meteor
##operan
VOR
rima
##propuso
##circulación
cke
jajjaa
##congr
##período
##defenderse
##😂😂😂😂😂😂😂😂😂😂
##Buee
##Hablan
##Inglés
##Update
##rellen
##restos
ika
cionó
oooos
##DESPU
##gremio
##📞
##bragas
##Borrell
##cruzado
##VII
peros
derson
##coque
fina
##victimas
ambre
##luch
##resfri
buena
crita
##moja
bledon
##lectores
##revancha
##Armando
##vocación
##Benedetto
##DEC
embre
##voss
##igualito
PL
posi
##CIUDAD
##Spoiler
##puñetas
mundo
icemos
##bill
##persigue
##Actualmente
##Never
##sound
##IVA
##Detec
##Podéis
buenos
##basket
##Estaban
##Oficialmente
Oro
##Sun
##tinto
##limite
##pondrá
##inventan
##peluca
Gra
ZAS
##10000
##LINDA
##ancho
##pales
##segur
Gobierno
##aren
##tinder
##nalga
##fueros
##AMA
##2005
##seras
##header
##Jalisco
thy
##luc
##mangas
##inconvenientes
mbab
##Però
##Time
##asalto
##Carlitos
##incómoda
##recurrir
##perseguir
##advers
##hast
##caben
##metiste
##garantías
##❄
gni
##etiquetas
##descontrol
tl
##amparo
##géneros
##ANDA
##Tito
TRU
ñen
##Sube
##confirman
##encerrado
##Out
##causar
!!!!!!!!!
Cada
kdkd
vice
ORTEA
##Reco
##agusto
##Catalina
##paquetes
##mantenerse
vit
ksjs
bucks
borto
##dirigió
##rotun
##subte
##asfal
##pepino
decida
##antif
##Región
##chelas
##jajajajjaja
##Ace
portun
##bombar
##vendes
##certificado
Xbox
##inunda
##desierto
##publicando
GRE
😡😡😡
##Edgar
love
vente
##paralelo
##★
##ratón
##Orlando
##Leopoldo
##racional
XX
##haciéndolo
##medicamento
##Soñé
##Aveces
##Varela
##origin
🎵🎶
##didn
🥺🥺🥺
##baia
##pájaro
##Info
##enoje
##secuestrado
crania
##Milan
##Pales
##Leonard
##destruye
RY
Án
##Pocas
##Carabineros
got
énico
##frustrado
##Preocu
##cortina
equi
##debí
##diagnos
##finalizar
##ib
##Well
##Alfaro
##TENES
andy
##patrio
##testimonio
abasco
##alcoholes
##sacrificar
##puños
##quitarme
MartesDeTetas
BRO
lit
##cojon
##fanfic
pobre
##under
##teleno
interpre
##dal
##2017,
##retró
##hipótesis
##caricatura
cede
##Juve
##notable
##Judicial
##acompañante
of
##prision
##Jajajjaa
##contarle
##Salamanca
Dra
##Aur
##oraciones
ConexiónHonduras
##😗
##libera
##dejarle
##sembrar
Seductoras
rete
##luchas
##COLOMBIA
##inauguración
ghts
tuar
##baba
##gifs
##Repor
##Discrepo
##establece
##repugnante
imer
##since
##tuiteando
imes
trix
##Nahuel
##Pongan
##°
Dos
##Elo
##TIAR
##engaños
##vecin
##fortalecer
##Enfer
##absor
ól
##Lejos
##verso
##Última
##mañanera
##Paolo
##arme
##Dejame
##campan
##identifica
ORADA
ballos
##Propongo
##FRAN
MALUMA
##Tinder
##dineros
habilitación
##JAJAJAJJAJA
##Coo
viesa
##nublado
Of
##cuestan
##Recordemos
##84
##Legisla
##pudiese
##juguetes
##presentando
##habria
##definen
🏆🏆
ólica
usieron
##Salazar
##Nena
##bonos
##vegan
##conoció
##parásitos
quese
iendan
##Estimados
##😧
tade
##teór
##llamarlo
##Cú
##Llama
##duerma
##intimidad
##eles
##Minuto
##comencé
##triunfar
##Scar
##trami
ASE
zzi
thony
##Death
##Pinta
##Desarrollo
##resuelto
##Verás
해요
##tibur
##defensas
Sil
##Quem
##hier
##notaba
##catalan
##inmigración
...😂
hora
ug
##Anabel
##Guzmán
##básicas
##andaluces
##universitario
diga
watch
##AGUA
##Mere
##prosper
##examenes
##infraval
##indemn
##proven
##convencida
maste
##Cuáles
##Mbappe
##conforma
!!.
ATodos
millas
##residencia
##💎
YAN
##05
##ez
##23.
##vuln
##Sigamos
##👆
etc
después
##wue
zor
tipos
.❤
##aplaudo
##feli
##roles
##analiza
##chismes
##engañado
##prudente
##✨✨
##DICES
##flipo
##calefac
##reconocen
QUIER
##Kill
friend
##dominio
##HACIENDO
##presunto
teas
Ganar
incha
isiquiera
rés
##llevaría
fk
bul
##COME
##NAIM
##prota
Vaya
##saltan
Martin
##Adrián
##apartamento
##deval
##NOMBRE
##temblando
esper
##?!
##cima
##intac
##traemos
##(5
##Ry
##💪🏽
mens
##festa
##POLÍ
##fora
##jajaaj
uesca
##pick
##prol
##Llegamos
##esclavos
##interese
##propuesto
alho
ceres
rác
##diu
guitas
##twiter
##exagera
##suponer
##Targaryen
##realizando
##Continu
##wit
##CABE
##Hazlo
##jajajaaj
Sec
##fabul
##niñez
##Serán
##grand
##panfle
##pasame
##estatua
##Femen
##abran
##engañan
---
rango
##computa
##Respuesta
##Suarez
##cerdos
##fomentar
TEAM
##tomará
##decencia
##visitante
##AFA
ticano
##SALIR
##lavadora
SER
##inviten
omun
##Aní
##5000
##falló
##corrección
ggg
##tirón
##aprendo
##🙅
##talk
##Vegas
##chimba
##toquen
##máscara
##support
##adquirir
##creativo
##fies
##teoria
##kan
##Mutuals
##platica
##patriota
##estrategias
##canse
##Spi
##Adoro
##provocando
##ABRA
pagar
##unha
-5
##pisa
##oe
##Gén
##Vine
PSOE
glio
darte
##bandido
petegui
imbledon
##vampiro
##reemplazar
##contestando
##convirtiendo
ory
##Ani
##fave
##globo
samos
##Spanish
##dit
##coach
##tinha
##Caribe
##Turquía
##👉🏼
##Campo
##respiración
##KO
##Augus
##babosa
##🎉🎉
##INVI
##Isla
League
##CORAZÓN
##espiritual
WU
cif
##hidra
##manta
##jovenes
##ombligo
##fiz
##incerti
Han
##penoso
llar
##encontrarme
kend
erona
ístas
ueltos
##DESPUÉS
##funcionamiento
##asegurado
##Belleza
##callada
##Espectacular
##cerve
##párra
##debiera
##comenzando
GUEN
##Anna
##cargador
##malísimo
pía
##bajen
incuenta
##dedicación
##inferiores
##calzón
##dial
##Corona
3)
toro
claro
##Ross
abetes
##Cinco
##encaja
##respeten
Enhorabuena
Play
##ST
##khe
##llevé
##alegrías
36
##spe
##atrevo
##Espa
##carrito
##Mia
##jornadas
##Joao
##GRUPO
##Ochoa
##injusta
BY
quiá
##Noches
##darlo
##TRABAJO
##retweet
##buee
##Titan
##abandonó
##perturba
bit
##fome
icé
uska
##bebu
##2018.
##inves
##QUIERES
##admirar
##cambiarlo
##💛💛
lamo
risis
##sumer
##inclusive
AMI
##nido
##LAR
##ácido
##Palermo
##alemanes
##mensuales
catoma
cisión
##preparo
##vientre
##Ayu
##gara
##tubo
##Perez
##Aguirre
##gobernadores
##FRA
##sai
tadme
##autopista
##cargan
##partidazo
##ELE
##bronce
##payasa
##😹😹
##Vivi
##pediste
##internado
##privacidad
¡!
##\
##cogen
##magnífico
##oligar
##temática
##🙃🙃
fachito
pertura
##completos
ralo
ísica
##yaaa
##JUSTICIA
##encantaria
##Cersei
##corpor
##sábanas
##Lean
ármelo
##Pobrecito
##ruina
##Diciembre
onal
##Raro
##CONFIR
##Habéis
##condones
tand
##PASÓ
ixo
##divorcio
##everyone
ASA
cidades
##barça
##tirarme
##parecidos
##asen
TONCES
##salve
##congel
##deberias
##ns
four
aún
##Comité
##collar
##Decidme
##Malditos
##grabación
mbolos
##volveremos
ZON
##prro
Challenge
##sanitario
##cag
tomas
##podre
##restr
##Podrían
##adicional
##bale
Osor
##raz
##eusk
##reta
##guantes
##relaciona
##JK
ffle
##maa
##picado
##templo
##Podríamos
##ponéis
##acostada
##Microsoft
##vencido
ciliación
##cedido
terráneo
##escucharte
##barbaridades
##hem
amigo
MeLleva
##tirarle
##pretexto
WWC
##🙈🙈🙈
##patética
##Cristóbal
##Cumpleaños
##chef
##asombr
##moscas
##casting
##desconozco
##hahahahaha
##vena
##deberes
##entrenando
##Hero
##Muerte
pien
##Prefer
##conocieron
##🙏🏽
Vota
##acre
##enana
##temblar
##práctico
##vot
##Eden
##Rad
##desm
##Clarín
##barras
##resume
##ventanas
2020
##ELEC
##👇👇👇👇
##Fecha
##idolo
gráfica
##bestias
##Información
midos
##Román
##Jajjaja
##Duer
##llamaban
unch
vill
##ángeles
##Huy
##males
mmmmm
##votaste
Rep
##jin
##Votar
estamos
##Manolo
##Buenísimo
##entusiasmo
gie
##Bai
##😆😆😆
ksk
##aroma
##llorón
##efectiva
##vocabulario
COM
##moch
##muchoo
##suavidad
sólo
##mias
##levantando
##Pocos
##hacerlos
Chi
##gotas
##gallinas
##brasileño
##enterarme
##informando
##st
##LLAM
##planteamiento
cá
##(?).
##House
##arbitro
##contener
##técnicas
##Eliz
ciados
##Curios
Diálogo
def
##cucaracha
##Obvi
Emilio
##violada
##adr
Segun
polla
##mandarle
Tom
##CUP
##esperen
##Trabajar
ecep
##COJ
well
##💕💕💕
##discusiones
##Bill
##oscuros
##criterios
vu
##🌺
titi
ótica
##resuci
##pasarse
ologo
##Arte
##Mera
##Norman
##cansas
##ENCUESTA
##instancia
bora
##Irlanda
##indígenas
##atendiendo
##especialidad
guo
##tráiler
##inaceptable
##🎈
##😥😥
##cad
##daña
tiras
##dinam
##rebelión
##lio
##Idio
##prevenir
##🤘🏻
piado
Joaquin
##owo
##More
amigos
##Martha
##carbón
##Ponete
##atrever
함께
##dj
##nava
tizado
##Cambia
##presiones
lands
##caido
##vinos
##citado
##insistir
##festejando
NoMas
##tobillo
##eligieron
##tribunales
ientan
##adelga
##gobernadora
Home
##many
##cobraron
##dila
##Putin
##Padilla
##premier
##repos
##sucios
##king
##trump
##descarga
##nmms
##déjen
##chingue
##mamando
##Femin
##escrí
##inventa
##oxígeno
##conspira
##preguntes
##Brian
##aprendan
##decision
##perjudica
##UNOS
##majes
##Scioli
##manager
##cuarenta
##barcelona
##Voz
##despec
##titulos
##excelencia
perci
taje
dalos
##jejej
arre
##BUR
##CARAJO
##pintas
##diagnóstico
🇦🇷🇦🇷
##AMOOOO
##agresividad
.😉
Jos
tely
##Bio
##Noticias
##remate
##preferida
##ب
##inesta
##trofeo
##merendar
posa
##Ahhhhh
##pagaba
##puestas
##doctrina
##franquicia
##Johnny
##Ponele
##recientes
##evidencias
##prevención
##abonos
##concuerdo
##plenamente
TUR
##Stre
##NUEVA
##Meu
terno
##cheto
##evaluar
iem
##sj
##Debido
##busques
ológicamente
##cabecita
##💗💗
##cómp
Última
##FUERTE
##prestado
##Dream
##desmo
##preferiría
GANDO
##cuestiona
ille
##bocas
##Tomate
##ajajajaj
##Monica
##tomarte
##TAE
toría
##Brad
##disfrutarlo
monía
##convocado
##Puente
##borregos
##neoliberalismo
urdes
##novo
élgica
##zapato
##integra
##conocerlo
##fuertemente
##area
##compares
##mandarte
##transfer
##ciclistas
’.
urro
##Vista
##crecen
##decian
##controles
##Over
##sobor
##griego
##unirse
##preserva
##comisiones
##Ela
##Full
##anys
utista
ñame
##IDIO
##dioss
BC
##즐
Gente
##topo
##antemano
##mandarme
MIOS
##KI
##DIJ
fada
##Hun
##Kan
##Nin
##RED
🙏🏻🙏🏻
blemas
##Bartra
##limita
##musulmanes
##identificado
OLES
Cambio
##Hacía
##arroba
##reconoció
##fundamento
##thro
##abrieron
Bol
ídos
##Fren
ipolar
##Cabrera
##aprovechan
##afro
##plomo
##casados
BuenViernes
kak
chuca
##BLOQUE
##camisas
House
##vasos
##Empres
##homicidios
##Girona
2%
mora
zate
##ATA
##Chac
ónicas
jajjaja
JAJAJAJAA
imales
##apaga
##colaps
##Echenique
##destruyendo
##contingencia
##woo
##acusan
##hagáis
imon
rese
##list
##vist
ñes
##body
##taxis
##perpetua
##conocimos
##acompañada
##ruidos
##toooo
Ga
##destaca
##invisible
##HAM
##denom
##Dybala
##Encuen
##Julián
##putita
My
##már
mbele
##Ques
##grada
##murio
##Alvaro
##MARAVI
##desgar
##crónica
##polític
##refugio
##bloq
##squad
##contas
patía
somos
##equip
##americana
##campamento
HolaAnnabelle
##😋😋😋
dinho
##CAPI
##Pode
##👌👌
##Camino
sio
##uffff
ducciones
ombie
##vacuna
##Mexicana
##legalidad
##hoteles
##asistente
##ESPAÑ
##Miser
##Palma
##violeta
test
huahua
##indio
##Oaxaca
DIDA
##Toro
##Bayern
##limpiando
mpi
##Ou
##kno
Hemos
##multitud
CoronaMeLleva
vd
idi
##Villac
##delica
##findes
##cortaron
quare
##Mais
##ajuste
##bandeja
##distraer
vard
##sufra
##traductor
##confundida
##integrante
##Enam
##jsjsj
##manita
##provocó
##sujetos
##viniste
##merienda
##important
##indignante
NNN
Dark
##Creen
##LLORO
##COMPLE
##.......
##clasista
##aparecido
ÓNDE
##Some
##spea
potismo
##Thanos
##Prom
##canter
##Caballero
dega
algun
##matarme
##oscuras
##intentaba
itora
trista
##chupame
##dudarlo
##mole
##delegación
##individuos
##Biel
##canon
##Tss
##Prometo
Aún
##🤤🤤🤤🤤
##Cecilia
##cobrado
##Encuentro
##pantallas
##rs
sula
##talleres
##psicológico
##dni
##Once
##Inver
##órganos
##Posiblemente
##chamuy
##labu
##variables
PR
##Name
##Gordo
##joto
Bla
##DICHO
##hacés
##identificada
##denle
ándwich
tiga
##corpora
##creíble
##bandidos
##milanesa
##presionar
🥰🥰🥰
##mascar
CHAS
bieran
##enteró
maba
##movió
##veían
##tambié
,¿
##mmmmm
##Electoral
##ph
##diversos
##escrache
##naranjas
##xk
!!!...
VistoEn
##reveló
##discord
##Quedamos
##espectadores
##imprescindible
GS
##ney
##brava
##Vieron
##suponía
##hacienda
##sorprendida
##seran
##exitoso
##????????
##concl
##cochin
Justicia
##mosquitos
kai
##rie
##Peje
LaLiga
##Festival
##07
MADO
adajo
##Qual
##acordate
##escuchamos
##96
##acojon
ksj
😈😈😈
bino
##joyas
##reclu
##Corina
##😂😂😂😂😂😂😂😂😂
##explicarlo
##lot
##nabo
##comenzado
##agradecería
Master
##campeonatos
##anillos
##beis
##ejem
##almen
Mañan
##amos
##emis
##haberla
##mayúsculas
##Cham
##Infin
##Chavez
##mesías
##Texcoco
##avisado
##acha
##Thomas
##patale
icor
##MEX
##cross
##desocu
##naciste
##🎊
Jesús
##existiera
tage
##vinito
##victima
##anuncian
CIDO
ecera
##infinitamente
##VOTOS
##cemento
##prófu
amilton
##MINUTOS
##afrontar
##católico
##usurpador
##botar
##dms
##Juana
##agrego
##pasarlo
##quebrar
##grad
##mintió
##disfraz
🙃🙃
##ID
##bá
##arque
##criaturas
##lujos
Nuestro
##Pareces
##Luisa
kenci
##cursar
##filóso
##electro
riti
##Little
##circuito
##hablarte
##eutanasia
##Vela
##negado
##heridos
##madridista
tien
##APAR
##Espe
##Pich
##barca
##influye
##replante
##deportivos
TERA
##APRO
##turnos
##exigencia
trofe
##Dices
##hartos
##Ronquillo
##maca
##apura
##elijo
america
##informamos
rica
culares
##ineptitud
EST
##flia
##reportes
##Felices
##pintado
##Dinamarca
icks
##Fuego
##Nomas
##CF
##cron
##vere
embley
CÓ
##ofendida
##planteado
URSELF
##Escor
##magis
##prostitución
dana
##audí
##comente
##demuestre
##religiosa
##🦋
##Giro
darios
##Levante
perdón
##Sudam
##muebles
##observación
##consideración
##Marico
##desarroll
##automático
iris
##Ocu
##PARE
##evalu
##subje
##abrigo
##Lannister
Bondoni
ejo
run
##GAL
##meet
liegue
##ESPERO
😭😭😭😭😭😭😭😭
##colabor
##AZ
TBOL
##COL
##Shin
##repita
##regalito
##escondidas
JUE
##keep
##Camar
usia
##Kai
##encargar
##presentas
##Boluda
##contesten
##Agradecemos
##andabas
##amarillos
##sospechoso
##centa
##mencionó
##seeee
##competencias
##cmg
##agarrando
cking
##anular
##decadencia
##3-1
##apen
##Salgo
##Visto
##puerco
##sabrosa
##Entrevista
Podrías
##galleta
nto
##velas
##Marian
##tantito
##valioso
##Pensando
##Aeropuerto
##maravillosas
##같이
##soon
##peaton
##vegetariana
yase
##agi
##2015.
##inutil
##ofrecido
##promocionar
chenta
##sacarte
##dramática
##Palabras
WN
##┊
##equ
##cafetería
##suer
##proba
##rotos
##carisma
##consiga
##optimista
##ligero
##Espinosa
##guerrillero
##verdaderas
세요
DUC
##shin
##apartado
##consenso
##59
qm
##DR
Eclipse
##dentista
##icono
##Paloma
##semáforo
dencial
##cobras
##software
##nulo
##mojado
##aburrir
3%
##Any
##infum
periodista
##imaginado
##preguntamos
Ami
##Ajax
##paki
##confirme
##jurídica
##intolerante
##DEBER
##favorite
##SÚ
##arder
##Eugenia
##Señorita
##independi
##cementerio
Vos
##sco
##ramo
##Gomez
##xDDDD
##Tantos
##Cabe
##Terror
##minimi
dj
MMMM
##Night
##licor
06
poo
##cadera
##atienden
##llamaría
BIN
mara
##perrear
##Llu
##odie
##eurodipu
##jueza
##acostumbrar
##fuí
##xfavor
##cantaba
##volvamos
POS
##pegaron
ãe
BLA
##🤦🤦
##MIEN
##vial
##Promo
ternativa
omp
##etapas
##terceros
##ofrecieron
##Ak
fate
bicos
tanto
##VOTO
##Semedo
Ri
##😪😪
##preocuparte
##extraterres
RASIL
##checa
##construido
##esbo
idalgo
##posee
hope
##muri
##mamona
##Diputada
##Línea
##cuadr
##noite
##Graciela
##archivos
tedra
##sueña
lds
Otra
##causó
##impera
##CANCIÓN
##cuidate
##ENTONCES
##ue
##NCT
##perez
##pluma
wal
##💃🏻
##sencil
##cercanos
##MVP
joles
##Obama
##Talvi
cent
##Uhhh
##VAYA
##moren
##ecuatorianos
##Athletic
##67
bramos
##Mmmmmm
ute
##Argu
##Marte
quieres
##QUIEREN
kt
ely
##lue
##SOLA
##pañales
##Cárdenas
##Verónica
##recuperado
##educacion
Van
##Jamas
##incongr
##abdo
##pintan
##exitosa
zema
##Cuida
##tapas
##arbitrar
##Déjalo
##piscis
##publique
##eléctricos
##irri
##ganara
##puchero
PERJUNIOR
##Palacios
##gobernantes
ankee
##alab
##recicla
MTVLAKPOPSU
##belle
##ARRIBA
##Cadena
##bardear
##pusiera
##chingona
##Siguiendo
rale
##BCN
##envas
##chiquitos
##desmay
##Sartori
##disculpe
##adoctrinamiento
Pc
##contratación
##detenida
##salgamos
##izq
##sovi
adajoz
isionada
##mándame
##táctica
##Sheinbaum
##errado
##anormal
río
##Dá
UNCIA
Spider
##before
##seguirte
Mex
nan
##pure
ORTEAZO
##creada
##disfrazado
##salían
ép
##hua
##helados
##simpatiz
##94
##putea
##amando
##recetas
##energética
FelizMiércoles
##EM
LICI
##Aix
##shippeo
##explosión
rian
simo
##equipazo
Je
pura
##Phil
##despidos
##despreciable
##😦
##DORMIR
##menstr
##asintió
##disparo
##enfadado
##Darío
##(2018)
##TREMEN
##pinché
##indignado
##Control
##abstención
69
😱😱😱
sigue
##aplican
##liceo
##Molina
##volvimos
##Digan
##Snow
##pipa
##asilo
##Utili
##08
según
##Vigo
##escape
StrangerThings
##sobresal
##Cua
favor
##dirigi
##lloraba
##find
##cargas
ondeo
##PERÚ
##reduce
##agricul
31
##|📢
##apreciación
##Lautaro
##amiguser
ojalá
pamos
namente
##renuncie
??!!
##rural
##actúan
TIL
##Jol
##Cabron
##amanhã
##cajero
head
##reality
##visitarme
ombres
térate
##JUEGO
##Prefi
##ultimamente
llll
##lap
축하
##LeBron
##mantequilla
##77
##노래
##estão
lim
eira
##pete
##EXTRAÑ
##igualitario
##hig
##🤧🤧
fera
FIFAWWC
##pactan
##py
kaja
Menos
##chamu
##believe
##instinto
##Empezando
##09
##GAS
##clava
##hahah
##Tinelli
##acordás
##acostado
##(8
##scar
##vina
##albañ
##aplausos
##consumidor
##respondiste
els
haa
##Evo
##Soto
##PERSONAS
##pronóstico
##Paren
##PERDON
##amenazando
##adu
##aguar
ULAR
##Music
##melan
##vivis
##volte
piación
##feeling
##peinado
##investigando
##MÁ
##reple
##sabrán
osiciones
##cooperación
##furia
##retirado
##desarrollado
##Obri
##Azteca
##Garzón
##metodo
##ansiosa
##limpias
##Sociedad
##apropi
##bee
##vip
##Mola
##otoño
##útiles
##elevado
##sortear
Má
##soporta
##molestando
ift
deter
##sesiones
##tampo
##Besitos
##traspaso
##5)
##burlas
##convenio
Cab
##luci
##alimenta
##cortesía
##descubrió
##analizando
ém
##bodas
##meper
MTVMIAW
dimientos
##franceses
##gozar
##decirnos
##instrumento
mucho
##Barba
##alian
##ester
##Buscando
##elegancia
##metio
##continúe
##JUGA
##Manresa
##indispen
##prestigio
VM
uni
##Fis
##Betty
##OBVIO
##pablo
##homófobos
tomía
##fiar
Trabajo
##reitera
##110
##gom
##paseando
##autorización
cked
##pub
##comprometido
logan
##algor
##sinti
##económicamente
endas
##dormirme
##mañaneras
##hubiéramos
리고
##Abur
##avion
##ahorros
##delgada
##encuentren
##🚫
calle
##aves
##dois
##Xiaomi
##surgió
##FAMILIA
fl
😃😃
##Chur
##school
##vascos
##hablaste
JAJAJAA
.00
dern
mala
##Represen
##tentación
ÉIS
##carreteras
##👀👀👀
##Leyendo
##cumplan
ust
##🙏🙏🙏
##Ellas
##catás
##disse
Salvador
###10
##precan
##Bélgica
##aerol
##SEGURO
##dormía
qq
##:_
##AYY
##INF
##tua
##💞💞
##Morgan
##victim
회차
##acc
##kpo
회차공연
##mirror
##contesté
##Chiapas
##EA
punk
PES
##kids
ppa
vío
##Juz
##Alvarado
##amargado
ujo
ifique
jantes
jejeje
##vejez
##XQ
toon
##VIC
##hara
##kien
##sensato
wis
##🤦🏾
vidas
##maíz
##Gobier
##existió
##clasificar
##ESPE
dación
##raíces
##históricos
##Déjate
##equipa
##daremos
##tortuga
##llegaría
##ambulancia
##Rí
##gei
toras
##ché
2019.
##Jason
##Maragall
##《
>>>>>>>>
##plátano
##Asociación
JoaquinBondoni
INCU
##Free
##Nike
##códigos
##Chávarry
áneo
##Rita
plicable
##cambiamos
##DOMIN
##Metal
##volvio
Sig
##TOUR
MTVLAS
##humildes
##ky
##🙄😂
##impecable
CONO
##tala
##Crush
##incertidumbre
Nuestros
Política
##mediática
##mau
##consum
##mirarlo
##adicción
##diversas
zie
##VIO
##Acto
##fiera
deó
euro
##Best
##siem
##nadaa
##forget
##mejoras
##quemando
##recientemente
SD
##exijo
##atraer
ping
##Aprovecha
##Esperanza
##bendecido
##animalitos
##hm
lock
##exito
##pelotudez
##trastorno
##TWEET
##encontrarse
uertos
##fundador
##pobrecita
##spin
##tinta
##Duele
##infla
##basuras
INOS
taza
kovic
##igua
##Sabéis
##Televisa
puestamente
##😴😴
amiga
##Aldo
##obvia
##Informe
##académico
##usé
CISTE
##seño
##2020.
##pario
##aquesta
##asignaturas
##despertarme
##03
uskadi
##CHICOS
##implan
##estigma
##trilogía
##Calma
##manjar
##volverán
BIA
cena
##favore
##jajajs
##perdonas
##Libro
##tardo
##inicios
##있
GIO
##ríes
ársela
##Ching
##photo
##DJ
##cambiaría
sima
##clín
##regalen
😴😴
Ber
##(¿
mona
##cines
##👇👇👇
##túnel
##sugerencias
##2004
##Sonic
##catalo
##ediciones
##POD
ulado
##notó
##VOTAR
##desme
times
##1-1
yanse
##extrañan
##glu
##muje
##Fuimos
##mordis
##Minecraft
##HOL
##Chor
##Usar
##gordas
##ciclista
##😫😫
arth
🇦🇹
##Rose
##alér
##trino
##afectan
##homófobo
##pertenecen
##😔✊
##smart
##bolsos
##inclin
##ESPN
##rene
##masas
##sello
##enojan
##Presenta
##St
##ire
##EXTRAÑO
##aplauden
##desconocimiento
Temp
##denme
malte
##coro
##rigor
##jersey
##entregan
##estacionamiento
ᄒᄒ
quiere
##ik
##Sosa
TEL
##12,
##DUE
Corte
##Vaca
##armados
##aseguran
tivi
##Rami
##aterra
##cumbia
feta
##MIR
##Jones
##irm
##grabó
##consigui
##encantar
##precau
##jurídico
##cagón
##exo
##Weno
nistía
##terminaste
##Estudiantes
##read
wing
##Sas
##Band
##flam
##internas
##sensaciones
##Felix
##UNIDOS
##reservar
##fundación
##louis
##besando
vón
##sleep
##quedate
##oy
host
##moría
##decides
##pagados
##psiquiá
.:
##😢😢😢
##arepa
Pichetto
##causado
##salarial
##Sobretodo
Reg
##Hai
##IMB
##month
##chavos
Independiente
ère
##Asia
##Salom
##level
##encara
##imagenes
Padre
##pipi
##ángulo
##opuesto
##cúpula
##Apuesto
##masculina
ñero
##Klo
ónicos
##creerse
##Bac
##Ucrania
##supieran
##residu
estás
##italiana
##pretendo
##personita
jajj
##PROBLE
cedo
##Fro
úlpame
6)
##😌😌
##Você
##noven
##cerquita
##desaparición
##Saa
íneas
##Naran
ponentes
emi
##89
##Uyyy
##saying
##baratas
##réplica
_.
##Bun
ÉRICA
##Galle
##monja
luencer
/365
##fobia
##favorit
Sólo
##REY
enalina
##apesta
##bloquee
##papeletas
##financiera
##함께
dices
trato
##Vill
##hosti
##escribas
##mare
##Conoc
##Pinto
##Enga
EREMOS
##particulares
##islas
olencia
##cachorro
érselo
##hablabas
mentas
##hospi
##Garcia
##Procura
##celebro
##Conden
ORES
##jogo
##diente
##Superman
##adora
##Éxito
tificar
##reseña
##Apoco
##ojeras
##dialogo
##UCR
##dirían
##naf
ments
##piropo
##poderosos
hm
##((
OSOS
##😳😳😳
👏🏽👏🏽
[...]
